[UNK]
[MASK]
[PAD]
[CLS]
[SEP]
!
"
#
$
%
&
'
(
)
*
+
,
-
.
/
0
1
2
3
4
5
6
7
8
9
:
;
<
=
>
?
@
[
\
]
^
_
`
a
b
c
d
e
f
g
h
i
j
k
l
m
n
o
p
q
r
s
t
u
v
w
x
y
z
{
|
}
~
¡
¢
£
¤
¥
¦
§
¨
©
ª
«
¬
®
¯
°
±
²
³
´
µ
¶
·
¸
¹
º
»
¼
½
¾
¿
×
ß
æ
ð
÷
ø
þ
đ
ı
ł
œ
ƒ
ǀ
ə
ɪ
ˆ
ˈ
ː
˜
α
β
γ
δ
ε
η
θ
ι
κ
λ
μ
ν
ο
π
ρ
ς
σ
τ
υ
φ
χ
ω
а
б
в
г
д
е
ж
з
и
к
л
м
н
о
п
р
с
т
у
ф
х
ц
ч
ш
щ
ъ
ы
ь
э
ю
я
ђ
є
ѕ
і
ј
њ
џ
ґ
ա
ե
ի
ն
ո
ր
א
ב
ד
ה
ו
י
ל
מ
ע
ר
ש
ת
،
ء
ا
ب
ة
ت
ث
ج
ح
خ
د
ذ
ر
ز
س
ش
ص
ض
ط
ظ
ع
غ
ـ
ف
ق
ك
ل
م
ن
ه
و
ى
ي
ٱ
پ
چ
ک
گ
ھ
ہ
ی
ے
ः
अ
आ
इ
ई
उ
ऊ
ऋ
ऍ
ऎ
ए
ऐ
ऑ
ऒ
ओ
औ
क
ख
ग
घ
ङ
च
छ
ज
झ
ञ
ट
ठ
ड
ढ
ण
त
थ
द
ध
न
प
फ
ब
भ
म
य
र
ल
ळ
व
श
ष
स
ह
ऽ
ा
ि
ी
ॉ
ॊ
ो
ौ
ॐ
ॠ
।
॥
०
१
२
३
४
५
६
७
८
९
॰
ॽ
ং
আ
ই
ক
গ
চ
জ
ট
ত
দ
ন
প
ব
ম
য
র
ল
শ
স
হ
া
ি
ী
ে
৷
ਕ
ਜ
ਤ
ਦ
ਨ
ਪ
ਬ
ਰ
ਲ
ਸ
ਹ
ਾ
ਿ
ੀ
ક
ગ
જ
ત
ન
પ
મ
ર
વ
સ
ા
ી
ો
க
ச
ட
ண
த
ந
ன
ப
ம
ய
ர
ற
ல
ள
ழ
வ
ா
ி
ு
ே
ை
ం
అ
క
గ
చ
ట
డ
త
ద
న
ప
మ
య
ర
ల
వ
స
ు
ಕ
ಗ
ಡ
ತ
ನ
ಮ
ರ
ಲ
ಳ
ಸ
ಾ
ು
ೕ
ം
ക
ട
ത
ന
പ
മ
യ
ര
റ
ല
ള
വ
സ
ാ
ി
െ
േ
ก
ค
ง
ด
ต
ท
น
บ
ป
ภ
ม
ย
ร
ล
ว
ษ
ส
ห
อ
ะ
า
เ
แ
ไ
་
ာ
ᄀ
ᄂ
ᄃ
ᄅ
ᄆ
ᄇ
ᄉ
ᄋ
ᄌ
ᄎ
ᄐ
ᄑ
ᄒ
ᅡ
ᅢ
ᅥ
ᅦ
ᅧ
ᅩ
ᅪ
ᅮ
ᅳ
ᅴ
ᅵ
ᆨ
ᆫ
ᆯ
ᆷ
ᆼ
‒
–
—
―
‘
’
‚
“
”
„
†
‡
•
…
‰
′
″
‹
›
⁄
€
₹
⃣
℃
№
™
←
↑
→
⇒
⇝
−
√
≤
≥
⋆
━
█
■
▪
▬
▭
▶
►
▼
◆
○
●
☀
★
☆
☝
☺
♡
♥
♦
⚜
✅
✉
✍
✓
✔
✳
❍
❤
➖
➡
➣
➤
⠀
、
。
「
」
【
】
〡
あ
い
う
え
お
か
き
く
け
こ
さ
し
す
せ
そ
た
ち
っ
つ
て
と
な
に
の
は
ま
み
め
も
や
よ
ら
り
る
れ
を
ん
ア
イ
オ
カ
キ
ク
コ
サ
シ
ス
タ
チ
ッ
テ
ト
ナ
ハ
ヒ
フ
ヘ
ホ
マ
ム
メ
ラ
リ
ル
レ
ロ
ン
・
ー
ㆍ
一
三
上
下
不
与
世
业
东
两
个
中
为
主
么
之
乐
九
也
买
乱
了
事
二
五
亚
交
产
京
人
什
今
他
仙
代
以
件
会
伦
体
何
作
信
值
偷
先
光
免
入
全
八
公
六
典
内
円
册
冠
准
出
分
划
利
到
前
力
加
动
势
動
化
北
区
十
单
南
博
历
原
县
双
发
可
台
史
号
合
吉
同
名
后
吗
和
品
哪
喜
器
四
国
图
在
地
场
址
坛
城
外
多
大
天
奖
女
好
如
妇
妹
姐
娱
婆
婚
子
字
学
安
官
定
宝
实
客
宴
家
富
小
少
尾
山
州
工
巧
市
平
年
广
庆
库
店
度
开
式
录
彩
影
律
得
心
必
快
怎
性
情
成
我
户
所
手
技
投
报
拍
挂
推
提
播
撸
操
攝
放
教
数
文
料
新
方
无
日
时
明
是
最
月
有
期
本
术
机
杀
来
林
果
欧
款
正
民
水
江
河
法
波
注
洲
活
流
测
海
淫
港
游
湖
澳
点
爱
片
版
牌
牛
物
特
狗
玄
王
玩
现
理
生
用
电
町
画
登
白
百
的
皇
直
相
看
真
码
社
神
票
福
科
空
站
第
简
算
管
精
繁
红
级
线
经
结
网
美
群
老
者
聊
肖
能
自
色
薦
行
表
西
要
观
规
视
解
語
计
记
论
诗
说
貸
财
费
资
赌
赛
赢
走
跑
车
软
载
通
道
部
都
重
金
钱
間
门
院
青
面
音
页
预
频
香
马
體
高
黄
黑
龙
！
％
（
）
，
：
？
￼
🇮
🇳
🌷
🌸
🌹
🎯
🏻
👇
👈
👉
👌
👍
💐
💖
🔥
🔶
😀
😁
😂
😉
😊
😍
😎
😏
😘
😜
😝
🙂
🙏
🚩
##ग
##ट
##स
##ठ
##ी
##य
##ा
##र
##त
##ि
##ल
##क
##व
##न
##म
##ो
##फ
##ए
##इ
##ज
##ण
##g
##e
##n
##c
##j
##i
##भ
##ह
##o
##r
##a
##d
##l
##о
##г
##т
##и
##п
##м
##t
##4
##8
##f
##7
##9
##u
##p
##ढ
##ॊ
##छ
##ड
##द
##श
##3
##0
##5
##s
##ष
##ञ
##थ
##x
##m
##h
##ब
##अ
##ध
##ऑ
##च
##प
##k
##v
##y
##с
##р
##е
##н
##ы
##आ
##ई
##ङ
##6
##w
##b
##झ
##з
##а
##ч
##ॉ
##1
##ौ
##φ
##घ
##ः
##ओ
##б
##у
##я
##2
##z
##®
##¤
##²
##°
##µ
##ه
##ز
##م
##¾
##ন
##া
##ত
##ক
##þ
##ख
##८
##४
##३
##०
##ت
##ب
##ر
##к
##१
##ာ
##ا
##ل
##س
##ج
##د
##¸
##¥
##œ
##¼
##و
##q
##उ
##π
##ι
##λ
##μ
##α
##ο
##ˆ
##¦
##€
##२
##л
##ь
##९
##६
##в
##た
##く
##な
##い
##ऊ
##´
##フ
##औ
##ح
##ي
##ن
##ऐ
##ф
##¨
##ळ
##д
##●
##ء
##れ
##に
##よ
##り
##ま
##す
##と
##は
##ک
##ی
##ρ
##ω
##τ
##θ
##η
##і
##غ
##ذ
##ı
##ն
##ե
##ո
##ᅵ
##ᄋ
##ᆼ
##ᄌ
##ᅡ
##ᅴ
##ア
##ル
##テ
##カ
##−
##🌷
##ண
##ி
##👍
##ك
##ش
##ة
##ц
##ق
##ᄆ
##ি
##য
##র
##ж
##🏻
##ऽ
##≤
##×
##▪
##っ
##る
##う
##お
##ѕ
##є
##ђ
##ھ
##५
##ш
##ハ
##ー
##ン
##ト
##ス
##を
##מ
##י
##¬
##δ
##κ
##υ
##ъ
##ø
##ᅢ
##ᄇ
##ᅧ
##ᆫ
##ᆷ
##ᄒ
##ᆯ
##ᄀ
##ᅥ
##ᄉ
##७
##ª
##ƒ
##¯
##✓
##ッ
##ヒ
##シ
##て
##ð
##ऋ
##¹
##か
##き
##х
##ו
##ת
##ר
##ε
##ع
##ऎ
##🌹
##🙏
##ऍ
##け
##ા
##જ
##પ
##ત
##ف
##ј
##ς
##÷
##ٱ
##ে
##ল
##ਤ
##ਨ
##ਾ
##ॽ
##ю
##щ
##ى
##や
##©
##😎
##ν
##ழ
##ை
##ய
##డ
##క
##ల
##せ
##こ
##も
##β
##γ
##ો
##ર
##સ
##ક
##イ
##ク
##ラ
##😂
##レ
##ᅪ
##ի
##ր
##ա
##☝
##ᆨ
##ᅮ
##ᄐ
##≥
##ヘ
##キ
##ホ
##￼
##ł
##し
##জ
##প
##ᄎ
##ص
##ض
##ط
##њ
##♥
##ґ
##ᄃ
##ᅳ
##→
##џ
##▼
##👉
##ல
##ம
##ு
##ற
##チ
##リ
##ே
##ா
##ன
##æ
##の
##タ
##サ
##ん
##😍
##そ
##ం
##చ
##స
##ᄅ
##ॐ
##ೕ
##ಗ
##ಡ
##ப
##வ
##ள
##த
##க
##خ
##ß
##ᄂ
##😜
##ர
##ட
##గ
##న
##น
##ท
##อ
##ง
##え
##ব
##™
##ന
##വ
##ി
##ᄑ
##£
##మ
##ד
##ע
##コ
##ム
##ナ
##ਰ
##ੀ
##✔
##⁄
##つ
##দ
##ప
##ర
##ట
##σ
##ద
##ী
##ː
##ɪ
##ہ
##ᅩ
##ה
##ב
##ી
##✅
##ᅦ
##ಾ
##ರ
##ನ
##ち
##ら
##★
##ు
##オ
##ก
##า
##ร
##ห
##บ
##ാ
##ല
##ക
##ے
##♡
##±
##😘
##ค
##ಕ
##✍
##پ
##№
##ਜ
##▬
##👈
##ਕ
##گ
##ə
##ਹ
##ਸ
##স
##ম
##ث
##হ
##ട
##യ
##ര
##േ
##વ
##ป
##🇳
##マ
##😏
##あ
##ש
##ऒ
##👌
##⚜
##み
##さ
##🚩
##ל
##↑
##½
##മ
##ം
##ะ
##ล
##త
##ન
##મ
##ச
##😊
##െ
##😀
##ਦ
##め
##😉
##ந
##പ
##メ
##ಸ
##ಮ
##ظ
##వ
##🌸
##ˈ
##💐
##ส
##ม
##แ
##ไ
##ต
##━
##ـ
##ગ
##چ
##ത
##χ
##ಲ
##ย
##ว
##ด
##เ
##গ
##ロ
##₹
##ು
##య
##⃣
##☺
##ং
##শ
##☆
##►
##℃
##˜
##➖
##■
##🇮
##ট
##ਿ
##ǀ
##❤
##😁
##റ
##👇
##º
##സ
##⠀
##ॠ
##ਬ
##ਪ
##¢
##ള
##א
##🔥
##➡
##◆
##😝
##🎯
##э
##ই
##³
##ಳ
##💖
##চ
##√
##ภ
##ತ
##ษ
##○
##🙂
##అ
##ਲ
##☀
##♦
##➤
##✳
##〡
##৷
##█
##✉
##🔶
##đ
##⇒
##আ
##←
##▶
##➣
##▭
##ार
पर
##या
##ान
की
कर
को
##ता
का
कि
और
##िक
##ना
##ाल
हो
इस
##िल
##ही
##री
##ित
##हा
##ात
##यो
##िए
भी
##रा
एक
##िया
सा
##िन
##कर
##वा
वि
##ती
##िस
जा
##ला
सम
##पन
##ति
लिए
उन
नही
##तर
रा
##ाद
सक
ही
##िर
##सी
##गा
तो
आप
##का
उस
##कार
अपन
##ली
रह
##ाम
##पर
##कष
यह
##ास
##की
किया
##ियो
था
##टर
सर
करन
##ोन
##गर
##वार
##ाय
##ोग
पह
हम
##िय
##ाह
साथ
##मा
अन
कार
गया
##दर
##ारी
##को
##टी
##गी
जो
##नी
##ाव
वाल
सब
##दी
##डी
##मी
जान
##हत
##भी
अध
राज
कहा
##रो
##दा
##सा
उनह
बाद
##िला
लोग
कम
##ाज
##शन
##िग
तक
थी
दर
जिस
##ानी
तर
सव
जी
मह
रप
भार
दिया
20
##सत
##था
लग
पा
##दश
##जी
##ाग
सी
##डा
##कि
इन
##कत
##ाइ
नि
रहा
शर
बार
##वर
कछ
मिल
##ोर
वर
लक
बी
या
##वी
हए
जब
वह
बन
दख
##मान
रही
उप
सि
##तरी
लकिन
मन
##पी
##बर
##सर
चाह
बात
दो
##ाई
##वि
##ौर
##जन
जन
दी
अब
##ाना
पहल
करत
बच
##लो
कोई
सरकार
दश
गई
रख
##in
##िश
किसी
अपनी
दिन
अधिक
पल
##िख
उत
होन
##ोल
##जा
बता
पी
सथ
निर
गर
उनहोन
आज
जाता
बना
कष
##ीन
परा
भारत
##योग
मो
लोगो
होता
बहत
201
जात
जाए
##दध
विश
##यक
मा
हर
##षट
फिल
बि
परि
तरह
अप
##सट
समय
इसक
##er
सकत
##मन
##ोड
काम
##चार
##ोट
बढ
##िव
कह
गए
##जर
मद
कल
चल
परति
##तम
बल
हआ
##ar
दवार
##ोज
मौ
नाम
##पत
करना
कारय
फिर
##चछ
पार
##धान
बद
पहच
कई
दिल
लगा
अगर
दन
ला
साल
फिलम
दवारा
##ोक
##an
##दि
मान
उनक
##मर
सट
जर
##हर
शरी
सभी
सकता
सवा
##िट
कया
सन
सो
मर
##िका
सच
##पा
##बी
##es
##00
##कषा
##वन
##at
बर
##िम
हई
विक
घर
##सथ
पलिस
परी
बह
##on
##रम
##ारा
बा
परव
वो
आपको
##यम
टी
##िप
सबस
पड
##ाला
मख
##or
अल
लकर
अर
एव
होगा
##भा
सिह
यहा
##सल
सह
##गल
भर
##यर
उसक
##िता
तथा
##धार
होती
कयो
सप
माम
शिक
मार
##दार
ना
जया
नी
##तन
परस
जल
##टा
##ीड
##en
बचच
अभ
आर
निक
कारण
##लय
अचछ
पास
##फी
परम
##षा
दौर
सस
हा
चाहिए
करता
बताया
##तीय
जस
##षण
लिया
अव
दिलली
##ोनो
मझ
##कट
##एस
##al
##धी
लड
कषतर
##भाव
दोनो
आई
जिन
सत
वरष
उनकी
##ाली
घट
वय
##रण
##हार
##नाव
##शी
जयादा
टर
ऐस
##यार
19
वाली
महिला
##रीय
##कल
##कति
##ॉल
##कस
##बध
##यी
तम
दिख
##di
अपना
विभ
##गत
राजय
आन
बीच
##वान
##चा
##कारी
पतर
आग
शाम
##राम
##दन
किस
खिला
##यान
परदश
भारतीय
ऐसा
अस
परश
दस
अनय
in
##ातर
##डर
पढ
सथित
समझ
वही
लिख
##ॉर
##िद
##जञ
##वल
##मत
जाती
मज
दौरान
तीन
##बल
कप
##वश
कस
परत
कागर
##करम
मत
##ताओ
आस
10
##िरफ
##टन
गा
बठ
कागरस
खल
कभी
इसी
##वास
चनाव
बड
##st
होत
आपक
##धा
वा
अनस
सख
तब
##िज
उद
जग
##it
सफ
##एम
अलग
पारटी
जहा
एस
##ic
गाव
##तव
काफी
जीवन
पश
ओर
##लिए
##यालय
कपन
भा
##यकष
बस
##यन
पि
##वाद
सतर
##वस
उठ
फर
मल
इत
कयोकि
रो
गो
##यकति
नया
ली
##शा
##ीर
##om
इसस
बज
##दान
##जार
टीम
चार
होगी
पत
##तान
##चित
##ोरट
जानकारी
##बा
बक
आत
मोदी
चन
##धन
याद
हमार
##कटर
आरो
##ादी
रग
जरर
चौ
##ियम
वयकति
वहा
वया
फल
मामल
सल
##आई
शामिल
पद
##पति
##ातरा
उसकी
डॉ
सकती
##षठ
हिस
नई
##le
बाह
पस
##षय
महा
इसलिए
##माण
सामन
मरी
##षटर
पिछ
राम
मदद
आदि
पानी
गल
पट
तल
जिसम
##ाया
##षटरीय
बडी
सद
##करण
परधान
अनसार
2018
यदि
कमार
खान
अभी
खिलाफ
लख
##ीज
किए
हाथ
समाज
कन
जाएगा
##re
##नो
परकार
योग
विशव
इसम
आद
विकास
मच
मध
##ोजना
दसर
इसका
करोड
##इट
उनका
करी
दत
##वाल
कोर
योजना
##ताब
##ion
जाय
##परण
अक
##पाल
ता
बनान
सना
जारी
परिवार
चक
फस
##डल
अमर
लोक
अग
अत
##णी
##ानो
पो
आख
12
##ing
उततर
##ou
पता
वाला
परापत
रपय
##ad
लाख
##हम
##जद
दनिया
आम
##कषण
विशष
करक
##वाई
##धिक
आधार
##am
भाज
##सभा
आए
रिक
हाल
##बद
re
इड
विद
करती
उम
बरा
कद
##तिक
खद
ne
##यास
करम
भाग
अतर
##चर
महत
आय
मतरी
##जय
जगह
गण
अला
अधयकष
भाजपा
डा
##ची
हत
इला
सबध
##वत
ऑफ
नजर
बाहर
##ाइल
हि
अति
आया
साह
15
समस
##मल
उसन
समा
लिय
सिरफ
##यमतरी
##डो
घटना
##यता
##मतरी
##ायर
पाक
बाल
जिल
##ियर
माग
वज
मिला
फी
सकल
आरोप
##बाद
उपयोग
कपनी
हल
##मक
अलावा
##मार
अधिकार
बडा
परो
नौ
परभाव
यही
चर
##रीन
गयी
मीड
##काश
पाच
आयो
नर
पिछल
डी
##िसतान
##ाइन
कवल
दिनो
हजार
कान
कारयकरम
कही
राषटर
लन
वीड
##as
मीडिया
सग
##शल
##तो
साम
विध
वीडियो
मखय
पक
##नि
वजह
विभाग
मखयमतरी
दल
हिन
बिल
भग
##मट
राजनी
जिला
बचचो
मश
कला
नय
परधानमतरी
##तमाल
ऐसी
रात
जाच
सार
सथान
##चच
##is
##ियन
दिए
इसतमाल
##चना
तयार
मक
हाला
पजा
बो
हालाकि
बॉ
##ासन
बदल
th
##मीद
छोड
जबकि
डाल
##पता
##हल
##िसट
एन
समसया
उसका
अम
##लब
200
एम
सौ
##ितर
उममीद
शिव
धन
धरम
पछ
परण
##िनन
धयान
मस
अचछा
##indi
##भव
##ed
मरा
11
18
##णा
##ॉन
करीब
जाना
रखा
लाल
शो
कदर
कट
बाज
##नत
##ws
विचार
पहली
रपए
##पस
कोश
सवि
गरा
मही
रहन
नता
##हन
बोल
होना
##ायक
पन
##इन
तरफ
जिसस
मदिर
चला
जिसक
जड
काल
तय
##वसथा
शिकषा
चाहत
##टक
##शवर
##सन
शबद
##ौन
##ro
वयाप
##वाह
##जली
इसकी
##मिक
##डियो
बिना
महतव
राषटरीय
##ent
##शत
जनता
##मद
रिप
माध
##il
##पाद
##et
माल
शहर
समर
बट
करग
##तार
दव
भाव
गाधी
कश
##डक
##ch
सपर
लगी
तरी
मी
लाभ
आवश
रस
अरथ
कहत
शरीर
पिता
##भग
##थाप
सघ
##डन
घो
उपल
आव
आपकी
निकल
दखा
सही
##जित
an
##जो
रिकॉर
सोच
##ीक
छोट
##id
##वय
##जञान
परदर
दरज
##षक
hindi
##टो
आवशयक
##रोध
##ारो
निरमाण
##ायत
पाकिसतान
खास
##ay
बिजली
##मो
खबर
लगभग
दिव
खरी
लगता
##विद
सथिति
उपलबध
सफल
सास
सवाल
##णड
नए
कहना
##धि
##बन
##शि
जररत
कोरट
##सथान
परीकषा
##ाती
फोन
##टल
##गढ
##िकट
सदस
##ितय
सरव
कोशिश
बीज
रल
##हरा
##ालय
परमख
##बई
शादी
##आर
भम
नव
भाषा
खर
बध
##वरी
मतर
##ायद
##ct
सखया
तहत
उल
मसल
##तरा
##सस
##खा
गय
##ot
सरकषा
विधान
जीत
##ur
दोसत
लो
बलकि
मताब
माधयम
##फर
##सवी
मताबिक
अधिकारी
रोज
com
अचछी
##नाथ
##el
दता
रिपोरट
यादव
सबह
तौर
होग
लगात
निय
रोक
पच
वस
##वक
खब
कवि
कब
news
उतपाद
एड
##लाई
##ol
परयोग
उचच
30
##हास
विभिनन
अफ
आश
ठीक
सामान
मौत
जाएगी
पीछ
जम
##टस
दखन
परकाश
टक
##थन
कॉल
जवा
##षित
भाई
to
##बत
मधय
##धर
खा
##पल
इटर
जञ
दा
##राज
अश
मिली
जनम
जय
भगवान
25
##चल
##िटी
नगर
##ताव
महीन
##ाति
##तक
पहचान
ऊपर
शरआ
यातरा
##तिहास
कीमत
##िति
वार
##राब
अद
दसरी
निश
14
##ri
वास
सहा
हार
##लड
##वाज
##ालन
बाजार
विदश
वयवसथा
गजर
महिलाओ
रहत
16
बिहार
सथाप
थो
ती
नीच
हमारी
##दधि
चीज
वकत
मौजद
माना
##ow
बनाया
वित
##िड
नोट
##िफ
नार
##वादी
##यत
सकरीन
अख
डर
मना
लाग
##बार
##िकी
वब
उसी
##यकत
रखन
गी
अपर
##जिक
निरदश
##कशन
##वासी
##ag
लाइ
शकर
फीस
तज
हिदी
##कता
परयास
##ठन
मिन
##ap
सरकारी
शरमा
सचना
परदान
st
कित
##सथय
लकष
यवा
परतिशत
जररी
13
वन
परदरशन
इडिया
इतना
साफ
पतनी
मिलन
##िको
आकर
पोसट
महतवपरण
हमशा
होकर
बग
बठक
एल
बढा
गद
##भर
##चन
पदा
##परा
मबई
मगल
बीजपी
दब
सोन
लगातार
##थी
सवासथय
आपका
##फा
रहता
##किल
सममान
17
50
अदर
##गरह
किय
विधानसभा
लिखा
माह
##ीय
शाह
##एल
##उन
दना
चकी
कॉ
नियम
वरत
पकष
##खड
कहानी
पशच
दकष
##ोरड
चीन
##ve
अमरिका
राशि
रि
##मीर
विरोध
2017
the
गिरफ
असपता
तसवी
हतया
##करिया
भो
परष
##िकल
धर
of
##रिक
भल
पतरकार
##गज
जिनह
##लाइन
उमर
##ak
रन
##लाह
फोट
सदर
चो
चका
धार
##ियान
आवदन
##वड
ति
मास
चलत
##कन
अभिन
सभ
गिर
वालो
##वरण
##कान
पसद
##सटर
##गार
शकति
##टिग
आदश
सित
रोग
चरचा
शरआत
राहल
हास
लौ
एज
##करी
कमी
सहित
##मता
जिम
##ab
##ततर
मौक
100
बनाए
लडक
##ाजी
##तियो
##oo
वयापार
##फल
मड
##पट
चिक
##िशा
आता
and
एकस
पयार
##गो
##यल
##सम
मोब
जमी
लगाया
##ियल
सवी
जवाब
बहतर
लडकी
##ोलन
सवय
कानन
दकषि
##षटि
##ut
मामला
दवी
ताकि
सकस
##शो
परिस
ऑन
on
##सव
धीर
असपताल
##ारट
पति
सविधा
उसस
राय
##ॉप
मला
कौन
वी
गह
##un
ch
लत
रवि
##कषित
##लप
##उट
पडा
##ठी
##ाए
दशो
रिकॉरड
दखत
##परी
आयोजित
लखन
##ir
##शिया
मि
##थिक
छट
परकरिया
##ac
परार
मॉ
डॉकटर
बनी
##दय
छो
गति
तसवीर
पाए
अधिकारियो
हिद
बयान
राजनीति
सवर
##ोस
सीमा
हमन
##मबर
se
भज
##ation
परभ
हिससा
sh
24
मोबाइल
##पकष
##दाय
गरी
अवसर
##रिया
सामा
शायद
हिनदी
##वट
परशासन
सिदध
##धित
जित
विषय
जसी
पाठ
रज
फसला
करगा
##भीर
##ul
खतम
अहम
गोल
##एन
राषटरपति
साहितय
रहती
रिश
##गन
खड
उममीदवार
भरती
सामाजिक
रक
सात
##दव
जानत
##लोड
बदला
आरथिक
खो
गराम
##राइ
इतिहास
कमर
##लीवड
बोरड
दोसतो
शयर
शह
वापस
##नदर
दीप
रिल
नबर
हिनद
##णय
पडता
हासिल
जञान
चा
सिर
##ायल
सडक
##साइट
हड
अपरा
##बधन
आदमी
फीसदी
##ालत
मगर
तरीक
21
किसानो
सोम
टाइ
मिश
दिखाई
आयोग
खरीद
राजा
वाह
शनि
उसम
ची
##us
##याल
बला
यानी
फसल
##est
परया
##मस
##lo
राजनीतिक
करान
जलद
बहद
गलत
##बित
डिज
तला
##णाम
राजसथान
##शनल
##बो
बटी
##ौल
माता
सभा
इनह
आपन
##नन
आतक
##दो
छातर
##षणा
शास
पथ
##िमा
बलॉ
रण
अगल
हाई
कारर
सोशल
आयोजन
कशमीर
ap
टरन
पहला
नकस
शिकायत
वबसाइट
नत
गभीर
थाना
भमिका
विन
चिकित
##रीम
दकषिण
विवाद
निकाल
बाव
##गरी
##बक
##मीण
##ig
##im
खश
##रास
परिणाम
मानव
कमा
आइ
गरामीण
गिरफतार
##em
वासतव
काररवाई
##फत
मका
समी
गौर
##कतिक
दरद
रलव
मिनट
पाया
लगान
घोषणा
जसा
जमीन
जिद
जिसका
##विदयालय
आती
वरग
##सतत
गज
##ाकर
##हित
अगसत
करिकट
##राषटरीय
शभ
अतिम
कदम
जट
फोटो
पान
टसट
आनद
सामानय
इनक
##सक
जमा
डाउन
आतम
नयज
##एफ
तमह
##ोत
##ah
##टरोल
महान
##सता
नरदर
##ातमक
चत
करो
ऑनलाइन
##फट
22
शा
बनन
सदसय
दती
विधायक
##लक
उनस
समिति
फट
जोर
##मारी
##धया
सगठन
हिसा
वरण
##पनन
भारी
##मति
अभियान
अज
कत
##वती
for
बॉलीवड
नौकरी
##लिया
मिलता
लट
साइ
अनभव
सटर
कारयकर
वश
समरथन
उलल
##िरा
परमाण
आवाज
दिशा
पीड
समान
सगी
खला
##शील
सबधित
नक
##िषठ
वरतमान
जलाई
परवश
कोल
सधार
गरम
##सो
गाय
##ानीय
##ik
कषण
विशवास
जाएग
सफलता
हक
खरच
बावजद
तभी
##os
मारग
##हाल
##ra
कठ
आवशयकता
##भावना
सचिव
सथानीय
इटरन
सोमवार
नदी
कारड
करवा
रहगा
विकलप
2016
##नीय
##कात
छत
असर
सकर
चरण
परशान
रचना
जडी
परशन
##ore
भवि
नताओ
चप
छोटी
मातरा
##ातरो
##जना
अथ
कविता
चढ
##मित
##िकस
चाहता
##थित
सथापित
डाउनलोड
नकसान
जाकर
रम
शी
गजरात
सतता
चाल
##ess
##th
##पण
##फोन
पजाब
भविषय
##दारी
de
मारच
गरह
शकरवार
नयायालय
##ment
मशकिल
परभावित
##a¤
कपर
शान
##िरी
तजी
किसान
दग
भगत
##ers
##धिकार
नागर
समह
सिन
##धानी
अनक
परतयक
अकसर
बधवार
खात
##ai
तकनी
23
सयकत
कराया
सीट
##थम
मगलवार
गीत
ताज
हमारा
दसरा
इतनी
मई
परसताव
अतरराषटरीय
आक
फिलमो
किलो
मजबत
वरषो
##यटर
##ायी
कॉलज
पकड
सची
##षद
समारट
##रजा
लखनऊ
एयर
निवश
नयाय
चम
199
सहयोग
गड
यपी
दिवस
परिवर
##थि
सवततर
पसत
पीएम
सतरी
सनी
लब
मसलिम
##रष
शख
हरिया
बदलाव
इचछ
you
दौ
करगी
अपरल
कदरीय
40
दध
पौ
कषतरो
सपरीम
यन
000
मिलगा
यदध
दकर
नियतर
मतलब
हॉ
महसस
28
कारो
दवा
निरणय
छातरो
आरोपी
आखिर
दखकर
##िना
a¤
थोडा
विशवविदयालय
शनिवार
सवाद
##ितव
आसान
##ter
जिदगी
##eb
समत
लना
बिलकल
लि
निजी
सारी
सिल
मनषय
जिसकी
सपषट
ससथा
अपराध
राजयो
##हान
सजा
##िटल
हमला
अगरजी
साबित
रविवार
गस
सगीत
उपसथ
##खी
डिग
##लाम
##रीज
##काल
मतरालय
वरिषठ
##ps
विकट
##ate
26
खराब
##थियो
सटशन
तह
डि
चयन
आठ
खाना
दरअ
कनदर
विजञान
जोड
इनम
दरअसल
अकट
अतिरिक
##कारो
ससकति
परसाद
अतिरिकत
##जरी
##um
अकटबर
इल
अधय
टीवी
##षम
##वारी
बाबा
इलाज
सवीकार
वोट
उनको
रखत
अदालत
##वहार
निवासी
अदा
पाव
रकषा
दिस
##पो
रोड
डिगरी
परान
बत
अच
छह
सहायता
लगाए
##सिक
me
करा
हरा
शासन
##डिया
##जनो
उततरा
con
आसानी
मॉडल
जलदी
लोकसभा
गम
##दशय
##ौती
जरिए
बाग
27
कपनियो
##ॉलर
भावना
हद
परय
##चाई
भीतर
##िनि
अधययन
##साह
##सित
##उस
##ठा
कारयालय
पछा
pro
जनवरी
चित
जाति
सामना
गरवार
साध
विवाह
कौ
उदयोग
परद
##िनी
नततव
वदधि
मौका
विजय
सभावना
कषमता
उनम
भट
घा
री
हरियाणा
तलना
मौसम
सितबर
सलाह
##राह
##ie
नवबर
##जञा
किताब
पसा
##ain
सपता
इगल
जायगा
ऊरजा
up
अथवा
##बीआई
समाचार
चना
##op
करनी
दलित
##ानक
भोजन
##and
चहर
बतात
सवन
दोष
##सि
##रद
बहन
##विध
एच
पजी
आदोलन
##घा
बारिश
निग
##िसटर
धारा
##ub
इज
लकषय
##ोनी
कषि
सासद
जीव
##कषक
##धयकष
दकान
खिलाडी
रिलीज
##चीत
पटरोल
31
तयारी
कड
दावा
बढान
विदशी
##ॉरम
कसर
बातचीत
##नद
शव
लौट
शक
भरषट
शबदो
##ायदा
घायल
##टरस
आल
##ord
##मना
अली
टिप
निरधार
तारी
परथम
##ide
गौ
मग
इलाक
चलन
आखो
दगा
सरकषित
सलमान
वयकत
##तीस
वसत
##पतति
सज
मिट
परचार
मलय
##खया
उपा
##दीप
गठ
बाकी
रिकॉरडर
किन
चिता
राजधानी
हट
भवन
##ारोह
विरा
मिलती
##योगी
सपताह
परती
##ियत
फा
नट
##परिय
काट
तमाम
शीर
समारोह
यवक
उतर
आधारित
read
धम
परियो
परशिक
##ive
पचायत
खन
बिक
एशिया
हमल
परिवरतन
##ानि
##ce
विज
##ाहरण
उठा
एफ
डॉलर
सिक
al
pr
दरशन
पला
वायर
नीति
लडा
साहब
##मीटर
##चारियो
##दरश
दरी
आलो
अमरिकी
मकत
लगन
##वाही
परसकार
is
##पास
जयो
खडा
तव
रखना
##tt
एप
##मब
##चारी
indi
परिय
समापत
धो
तोड
परकाशित
उतपादन
मशीन
##उड
विल
##धिकारी
पशचिम
परियोजना
##रल
दरश
##रस
योगी
चाहती
अरब
कलिक
खोज
इतन
हवा
##मि
##टरन
35
29
उदाहरण
महारा
more
##se
बाइ
बरिट
झा
##ine
##oc
पहचा
जागर
वीर
##भार
बिग
शाति
पज
##ob
##घर
महार
छा
मिस
पटना
##एच
परसि
लाइन
सटड
सरय
परमशवर
ar
खोल
खबसर
##परस
दम
##रट
##तकाल
करमचारियो
##शय
##पोरट
गला
सटार
सघरष
विसत
सभव
खशी
गगा
ऑफिस
फायदा
अनमान
गराह
##नियर
सथापना
बनाई
##ायण
कपत
##art
##तीसगढ
हाथो
##पान
राजन
कितना
मातर
##राव
सवार
bh
कडी
सीएम
हथ
पसतक
##भाग
सालो
बनाकर
डब
##ind
गिरा
##दल
चली
शराब
सीख
मामलो
##ist
अकष
##साइ
उड
पीडित
##विक
rec
तरत
##कश
##ost
परतिनि
विसतार
पाल
##चारय
जता
उललख
थोडी
##डिग
ad
पदो
रोजगार
छततीसगढ
2015
तीस
लोकपरिय
शरदध
सीध
घोषित
उपर
शौ
किर
जिनम
फसबक
2014
सटी
परसतत
मिलकर
##दयोग
लान
चितर
मतय
अचानक
मजा
##िकर
विपकष
रखी
##चक
सवामी
फरी
परिषद
कपयटर
उपाय
बलॉग
बललब
फरवरी
पडी
##चीन
अखिल
बचन
दाम
निष
आब
##ॉय
माइ
##कीय
धारमिक
उददशय
भमि
पराथ
##ॉट
मलाकात
सपन
##ॉक
रहगी
टट
##रजी
##बाजी
बाध
वितत
सामगरी
##टरो
##लस
सिसट
फार
वजञान
##पित
पलट
विकसित
अभि
##लन
एटी
जयाद
मदान
पराथमिक
समबन
फिलहाल
साझ
##ढी
सजय
मोर
ससथान
जवान
जिनहोन
अह
बीत
वद
कहन
##धनिक
##थर
पढाई
सारव
निदश
बीमार
शानदार
##मलन
कोह
वयवहार
परसिदध
राहत
en
सकषम
##परदश
सपरक
ph
छातरा
##ip
##तीश
ex
कथा
##if
बजट
सतरो
बीमारी
##वसाय
उपकरण
मानसिक
जमम
रासत
भगतान
घरल
हय
आपर
यरो
कारयो
##जीत
महाराषटर
##बदी
##िवार
इगलड
बचा
अनतर
##iv
मीटर
सतय
पहची
मसज
##ast
##जोर
शिकषक
##िशचित
जि
भजा
इनकी
60
मडल
सविधान
##pt
##वरस
२०
मडी
तवचा
##वयर
मिलगी
##ाचार
अनमति
मदरा
चलता
इटरनट
हालत
##दाता
सॉ
बालो
उसको
जयोति
##sh
##लर
बातो
##रीका
भीड
रिशत
मकाबल
sc
खतर
मसलमान
मनो
लता
नो
करियर
वाद
##चय
कोड
##वीन
इचछा
हन
उपभ
ततव
शिकष
पहा
कपड
अमित
सिसटम
निगम
सहायक
सीरीज
फाइन
##20
टिकट
चदर
परनत
गोली
##भत
ततकाल
निशचित
##वद
##पना
##सप
##रत
पदार
पालन
इसान
##जल
रिस
##िब
##od
लिक
पटल
##जनिक
##इस
##ov
सवागत
##मच
अधया
डिस
रकत
सदसयो
हाद
##डस
कमरा
चनल
रहना
विर
पराचीन
उपसथित
मम
##ome
निरधारित
जयादातर
##याण
गान
अतरगत
##जिए
तीनो
लॉन
##one
शोध
इतजार
शिकार
नज
समारटफोन
नियतरण
बगल
सबक
198
कितन
##पक
##वीर
पराइ
दबाव
दिसबर
ताजा
##धरी
अवधि
जयपर
हस
##ायन
आपस
##पद
##वाला
डिजाइन
लडकियो
बगाल
500
करल
रहग
आसपास
##मती
करमचारी
बोली
बढत
लगती
टरक
##ly
##वतता
ससद
दह
बोला
नाग
गाडी
टवी
पढन
परबधन
सड
##बाज
कपतान
कमजोर
भरषटाचार
##टना
खी
##ht
##दम
उतार
आधनिक
##ya
किलोमीटर
फायद
उपन
इलकटर
विमान
##are
सपाद
परोफ
टकस
सवचछ
##ातकार
बढती
हिसस
विदयालय
सपा
यनि
सफाई
सबो
कारोबार
##वाना
लखक
सारवजनिक
खाद
अवध
##वरक
साकष
पदारथ
##िकता
असत
शि
पीसी
wh
अरथात
परसार
सममलन
पहन
सगरह
हटा
##दरो
45
ककषा
अड
बरी
##रित
परशानी
दषटि
वाहन
नशनल
१९
##og
जमान
तनाव
##लाल
गरीब
सदश
पॉ
पराण
निरमा
सनवाई
##नाम
समदाय
परणाली
हित
कय
ताल
रच
##बस
##ant
##अप
बढन
नामक
मिलाकर
##बरी
बनाना
ताकत
##मदारी
झार
##ail
##नस
##ust
चीनी
शलक
सारा
सथल
##ोद
कितनी
##ort
जिममदारी
##चिका
भरो
थान
##याम
फला
दान
कलयाण
दिखा
साइट
##नगर
गपता
विष
मण
समसयाओ
गरप
महनत
##तमक
कच
जिमम
गणवतता
32
महाराज
विराट
हिम
##ee
शीरष
राव
##सथा
##राय
विदयार
कजरी
##तरित
##end
##सील
अकल
याचिका
पहचन
पात
आकार
सकी
समाधान
##ाश
वजन
##रोधी
कोहली
चौधरी
सबधी
छोटा
बहस
उपभोक
पाई
##बीर
दाव
परशिकषण
app
आराम
उचित
शरणी
vide
##लट
अनप
##बदध
##हारी
दिय
वतन
##ोगराम
आजादी
जिनक
इश
तीसर
##टरी
मौज
मफत
खाली
अटल
सनिशचित
परतियोग
मानत
कारयकरताओ
पाड
बख
पथवी
तन
दिमा
इनका
चट
जगत
ओवर
##ियार
इजी
सकरिय
उतपनन
समझौ
सझ
रड
परकति
जनरल
##पतर
कजरीवाल
##डट
टवीट
##फार
करज
विजञा
मानना
##िकशन
हिसाब
गार
होटल
##दाई
इक
यजर
##गाव
पराकतिक
##age
आगा
ईशवर
फाइल
डीज
2019
लडाई
पडगा
सीबीआई
##ity
मिलत
तलाश
हजारो
खबसरत
##सना
दखी
परवी
बिजन
##सिह
आखिरी
बजाय
##ताल
सवततरता
वाय
यग
दखना
मनाया
एडर
मितर
##av
जिसन
##शाला
विजञापन
होनी
चारो
निरवा
रोकन
इम
योगदान
दोप
करनाटक
लॉनच
##तिया
##दाबाद
पीन
निमन
##बाल
चनौती
डराइ
सचाल
विशाल
महिलाए
ठाकर
विततीय
##शिप
विधि
फड
सश
भरा
##हो
तहसील
रासता
##दरी
तरीका
परतियोगिता
तना
##ारक
उपचार
##गति
80
मानयता
भकत
70
बौ
नपाल
यवाओ
वरषीय
##दारो
नती
##ice
चिकितसा
परोड
आयर
भड
ऑसटर
पलान
विदयत
un
##परीत
##ish
चाय
मनी
परतिक
डो
##गान
नियमित
##करो
लॉ
##पथ
##ard
लगत
सॉफट
##aj
##वाली
##िली
मडिकल
आना
ऐप
##िषट
उर
सरवश
चीजो
##तिहासिक
##ia
##दीन
##ary
te
आईपी
आतमा
##याग
परता
ऑपर
बचान
उततराखड
197
एजसी
##षि
जानन
am
##यात
हालात
##याज
##लान
विरोधी
नहर
राजी
##वासियो
##एसटी
पषठ
पारी
किनत
2013
##शोर
##थय
जितना
असम
भारती
##रख
जाह
परात
गोर
सगठ
दोपहर
बाइक
##विन
परानी
समीकषा
आदितय
##धारण
डीजल
परपरा
परतया
दिमाग
बताए
##हाबाद
##तति
गरमी
वरमा
सफद
अशोक
शहरो
खिल
बाप
पव
sp
माहौल
##तल
हाउस
मालिक
परारभ
चोरी
##शाली
हाइ
घरो
नीतीश
गणश
बतान
##सय
निरा
रिज
परीकषण
घोट
विशषजञ
खिलाडियो
ईसा
सिख
नागरिक
नवीन
छोडकर
लागत
जनस
##सतान
टा
डिप
बम
##सीसी
##जिय
##साधन
वाक
मधयपरदश
आतकवाद
उधर
शात
यनिवरस
बनाय
पाय
सवरण
सवरप
##करता
बचचा
##ang
आवास
हलका
##xt
मिर
सीटो
##ite
ताप
पारक
भोपाल
##तरो
नाराज
##िमिट
परयावरण
##यट
36
##ारथ
डटा
ke
be
हसन
रणनी
लगाकर
पावर
आशा
समरथ
pl
भय
योगय
वाज
पछता
रट
##तलब
निभ
करण
हसत
##काता
शरम
चौक
नटवरक
शारी
##शित
अभिनता
लकषमी
साव
डायर
अपी
नीला
ससर
हरी
पारट
##ook
ऐतिहासिक
हिमा
मौजदा
वाप
गौरतलब
बजर
us
बिजनस
सकलो
मतदान
अखिलश
by
निदशक
वायरल
इजीनियर
जिममदार
मारकट
##अल
नयी
दलो
उज
दिखाया
परभारी
##reen
चाहिय
राह
चनावो
##ick
साथी
औसत
सतन
कारयकरता
खली
दायर
रॉ
##िसत
तरक
इडियन
चोट
तमिल
बहतरीन
पतरिका
गगल
खलन
अधिकाश
आजकल
##हमण
सशो
##वाय
तमहार
किरदार
विरदध
चनन
300
##काउट
##जात
ऑसटरलिया
ka
झारखड
##तः
सतो
##ction
गरहण
उदय
भौ
अजय
##oun
यनिवरसिटी
बाढ
##तरिक
सरल
लिखी
##यालयो
00
मिटटी
##ies
एकट
##सार
##धय
लाखो
फक
गट
परतिषठ
कहान
##बला
अखबार
सटोर
सममानित
शारीरिक
as
दिला
तारीख
qu
कॉम
गावो
यानि
चतर
आउट
टन
दशक
33
डरा
जाहिर
मोहम
फाइनल
सकटर
no
##नाक
##गण
##ure
सपी
##सती
htt
मोह
जमकर
तिवारी
दौड
ससाधन
बको
दीपक
##ug
कोच
कोलकाता
##टिक
##खला
शखस
पवितर
सका
india
##ud
परयापत
भोज
फलो
##विश
दास
परिजनो
सफर
खतरा
कमाई
उठाया
मकस
चद
विवरण
##जान
आह
यौन
वजञानिक
सवसथ
बटा
ईर
ww
सिटी
home
वयापक
परतिकरिया
##हरी
डाला
##टीन
दषट
##बड
##सफ
अरण
भद
जीएसटी
##विल
##तरीय
बिकरी
परबध
सबोधित
इलाहाबाद
खडी
अपील
करिया
##शनी
##ber
मात
परषो
ढग
##जीव
##दगी
##सिन
मिशरा
मझस
बललबाज
हफत
तिथि
पय
बय
बराहमण
उममीदवारो
##पयी
##cc
परकट
आरकषण
समझन
सनन
##up
cl
दवि
सपतति
दसरो
योजनाओ
समदर
##दवी
##िमिटड
##ith
इसीलिए
रोल
यातर
जला
इलाको
तकनीक
वयवसाय
खती
37
hai
सकट
मशहर
काली
मोहममद
##hi
सनदर
मकान
गहरा
##वज
डाय
##घन
अना
परतिबध
चिन
goo
बरो
दगी
उतसाह
सटट
दाख
कोरिया
काला
सिनमा
वारता
ससकरण
बराबर
माया
परवकता
##all
धनय
डढ
##रषठ
or
भरी
सथानो
pre
अनिल
सोचा
कॉन
बराम
दिग
हवाई
जगल
सॉफटवयर
बचपन
34
##ोरस
##50
गठबधन
##दद
tr
जिलो
im
196
टरप
कमल
चाद
##ातरि
सपना
महास
##इड
बदधि
ओपन
गलती
comp
अभिनतरी
पौध
हदय
##कोरट
किनार
रानी
खत
##खणड
पोरट
निरभर
##सरो
पतरकारो
रखता
नीद
##राबाद
डिजिटल
कवर
चकर
सरकषण
धवन
##मनी
##ामा
ससार
समझा
तार
##िमी
मिशन
गतिविध
बॉकस
##नल
लगाई
##शास
इसट
सकार
टरास
##सीय
बचची
किशोर
##वरो
बहा
लबी
रली
वयकतिगत
इसको
परौ
##एसपी
पतथर
महगा
कहता
बागला
कामया
सरवशरषठ
video
निरमाता
कराई
##वानी
##तत
कठिन
शिकषको
##gb
विशिषट
पीठ
ढढ
वकी
बदलन
##भमि
##ile
##ियस
##ितीय
पराव
खलासा
साझा
अजी
सरविस
काब
कलपना
विशल
यनिट
आधिकार
##करमण
web
शटिग
गिरावट
परिसर
90
##log
विचारो
बधाई
परोज
अतः
##लील
post
जबरद
निशान
भरोसा
चलान
तकनीकी
##ous
फिट
लोकत
जीतन
समबनध
आलोचना
कहती
एकसपरस
##हीन
मनोर
फॉरम
परोगराम
अवशय
आधिकारिक
##esh
बरक
वासतविक
बाब
आमत
##ोरी
##यब
भजन
गठन
##िखर
##िनियम
शही
##बारी
##own
आमतौर
परगति
टवि
रिकॉरडिग
विट
मजबर
होम
चौहान
वितरण
निरी
आबादी
पदक
सझाव
##ack
आतकी
दष
##घटना
##िशन
कक
इसलाम
सिदधात
सहज
टाइम
मित
mar
यो
##ामिन
गराहको
##कारा
समाजवादी
##सास
घटनाओ
2012
मसी
गन
##कमार
टली
लिमिटड
##वयवसथा
किल
##ial
खरीदन
आगामी
नरनदर
घाट
लिखन
भख
##जक
फीचर
लती
कथित
तीर
आशी
मचो
दसताव
लाइफ
वक
वाजपयी
सदरभ
फरास
##पणी
ततर
कलास
##पिक
##वाजा
मोड
अफरीका
सचार
तत
खादय
निभा
बिस
सकग
##ory
बढावा
कमटी
सासकतिक
बनात
##राजय
##िनट
लिसट
अगरवाल
वरलड
जज
##दियो
वॉल
##gle
नियमो
टिपपणी
जायगी
ढा
परदषण
आरोपियो
पाता
##ach
करार
शली
पछताछ
दरघटना
हादस
बरामद
कॉर
बरह
इधर
मछ
इद
शदध
अकाउट
समसत
परियका
राजश
##घाटन
जरिय
धरती
मय
जडा
सचालन
शरण
##िरो
परोजकट
झठ
कली
भरम
निरवाचन
##ari
मकद
तनात
नोटबदी
##कीन
काननी
##चरय
शिल
##नर
दरशको
2011
सडको
194
खबरो
राजयपाल
कारयवाही
टॉ
भाषण
अनकल
यव
le
मददो
हनमान
बकिग
नारायण
दनिक
उतपादो
एकटरस
लिहा
सनकर
आपरति
##मण
गढ
चाव
लीटर
सनान
अगली
आदरश
मजब
##सटिक
सरवा
कलब
सहत
पशचिमी
कसा
विषण
हिमाचल
परतिभा
धनयवाद
75
डास
विड
राजीव
##लका
fr
##परवक
##load
res
इका
हाईकोरट
पातर
अरथवयवसथा
##दिन
टविटर
सकारातमक
मकति
पडित
छड
एसपी
ऋण
जिकर
अपकषा
लम
दरगा
पररण
बलक
निकट
परतीक
##सको
##रप
जाल
कनद
##a¥
##our
वाता
55
रचि
निधन
सागर
विवक
अनदर
चनावी
##दास
दीवार
बरस
कौशल
परसनन
यातरियो
सोना
ab
सरज
पडो
नग
छि
अदाज
ki
##han
des
मनोज
##रन
महज
परवाह
अट
शाखा
##पड
तिल
www
सला
##ill
99
जापान
शरखला
##pl
अनिवार
उदघाटन
पोल
आकाश
##ोगरा
ममता
परापति
साधन
##000
परौदयोग
cont
सगठनो
सीमित
मडीसिन
जिनका
गरामीणो
जायग
with
इमर
बरिटिश
सबको
##कषतर
भाभी
##थना
मोहन
हदराबाद
01
##यकाल
पडती
परताप
48
##ff
चिकितसक
निशाना
कनया
सजन
मखयालय
सकडो
##डीज
##एसएस
वातावरण
टो
झल
##हिक
##ॉजी
tim
मालम
##वहन
गोद
लोकततर
मजरी
##पि
अधिनियम
अरजन
फाइ
##बारा
दिक
उनही
मोटर
बरहम
लाया
##िसतानी
पकज
पशचात
##ातरी
आएगी
आधा
उठान
##धारा
art
सनील
##ver
इसती
लकषण
आदितयनाथ
रोहित
अनसधान
किरा
##नाड
##vi
वापसी
##भागय
बचाव
पररित
लल
दिलच
##षिक
##सीन
2009
नियकत
##कम
down
पॉल
शरीलका
##धारी
भला
##जाम
बिहारी
टॉप
मसजिद
मथ
घम
##उडर
जाओ
चमक
record
गिरफत
चहरा
असल
05
ऑटो
नयाया
इसला
##सकर
कीमतो
सवत
पष
रतन
भिनन
अरविद
नोटिस
चकि
it
एकदम
अधयकषता
जरा
अभयास
डालकर
समन
लिप
चममच
हसता
उतना
निकाला
2010
विदया
##te
अनत
google
बलातकार
##करा
बागलादश
रजिसटर
निकलन
##ank
परावधान
बीएस
तापमान
खलो
असथ
टकन
बारी
##भाषा
##sl
जिनकी
##तमा
##इज
##००
he
कनदरीय
लघ
blog
लह
करवाया
भरपर
kar
बनकर
मठ
रणनीति
जीता
##वाणी
नषट
फरक
ताला
महीनो
परारथना
38
नियकति
दोषी
बरिटन
##ight
पलस
##ash
##खर
##ath
##यादि
नकार
घटा
इरा
दाखिल
विटामिन
ईमान
लाइव
सकलप
छवि
##शकर
असली
##िकष
दिना
पाठय
गना
खयाल
पाएग
##सतर
ससकत
कबजा
लव
दाद
दिककत
इच
##ne
अदभत
मारन
तिर
पाकिसतानी
आशचरय
कपा
पापा
अनतरगत
चारज
39
##जनक
##मभ
कनकशन
##लि
सिग
आजाद
कव
दोबारा
धमकी
रोजाना
##विशवास
तयो
##शियो
मगा
परदरशित
##गना
चनदर
आरट
नजदी
##roid
##हतया
ससकार
आएगा
खार
लदन
सिलस
शष
अकषय
बौदध
निरद
जोडी
##फिया
##ालो
##टनर
##वाड
फरजी
##वो
##ावली
कमप
जसट
सपोरट
वशविक
परयटन
साज
पषटि
नमक
अनवाद
बढकर
दफ
छाप
मसलमानो
इतयादि
जानता
फायर
हथियार
कपया
जानी
##qu
यथ
अवसथा
टबल
साधारण
##सवर
कमपन
उपनयास
सीधा
सितमबर
##कामना
बताई
अहमद
निकालन
मरति
यरोप
वयकतियो
कराए
इडसट
सनाई
##गरा
परौदयोगिकी
##ree
वसट
##पात
आहार
गतिविधियो
फॉर
medi
विपरीत
##दीय
##ph
सरवो
वकील
##ाजन
रखकर
##िकाओ
कलकटर
##मोहन
बनता
मासटर
सचालित
रोमा
##app
##फान
##लिय
साई
चालक
आफ
बटन
##ass
एह
बीमा
बिन
##ana
शल
मददा
पख
चदाई
आशका
##धीश
सवाओ
screen
परिसथित
बदमा
अजाम
लिग
इनहोन
दबा
off
उकत
##शाह
वॉ
अनिवारय
अधिकतर
डाटा
##हह
पतरकारिता
नयन
भरन
195
शाहरख
शरआती
तथय
##िएशन
not
झट
खाता
तलाक
दशय
कफ
सीजन
download
##ck
उपाधयकष
विशलषण
जॉ
औरत
वरणन
##sc
नील
##ोरन
विसतत
दरो
जितनी
रफ
##गिक
महल
सकोर
अयो
ईरान
आयी
बचचन
कलाकार
##वाडा
##गीय
सशोधन
at
परभावी
योगयता
गाड
मधयम
सिनहा
पपर
थर
##चाल
pol
परिवारो
शहरी
कानपर
वध
नम
परोत
##िएट
पबल
इजन
लडकिया
परतिमा
ओम
बदध
##me
चननई
शकल
##ult
दिनाक
कबज
दिवाली
कसी
जीन
##ाफ
##ress
डिवा
सकड
जयोतिष
##ील
निरदशक
##ft
दात
गोरख
शहीद
हरान
##कसी
चौथ
विविध
टरा
##iz
अनमानित
इनही
तट
तमहारी
महातमा
सतोष
##ाइट
49
भागी
शतर
सहारा
अधी
##वाया
चताव
खतरनाक
समबध
जोशी
बसपा
पण
बास
cam
जत
##जरव
चतावनी
सपादक
चि
मकदमा
लडन
भकति
एशियाई
नाटक
दिखान
अमिता
गिल
##फॉरम
एकता
आतमहतया
42
उपयोगी
आड
तरग
अफगान
बढता
पढा
कारणो
08
comment
अयोधया
##टिया
##dit
परतिदिन
ऐलान
वसा
09
निप
हटान
वनड
पिट
51
##ans
परतयाशी
मसत
निरमित
##पीट
सिया
नागरिको
बश
##दाताओ
2008
##लिक
जनमद
##मह
पिक
लोन
##थो
अललाह
47
गग
सीन
तमिलनाड
कमान
किमी
चककर
41
मकाबला
फारम
बलॉक
सवभाव
##काम
artic
नाय
नवमबर
आदत
जगहो
##ption
तारीफ
पीढी
पशन
सौर
गिरफतारी
टरना
डय
##वीय
शपथ
विषयो
बठा
परॉ
लगगा
##दिक
परोतसाह
किरण
राजद
सिध
जिनदगी
android
चलती
सोल
65
वाहनो
##kar
अमत
असतितव
शन
वयापारी
कलर
##har
जानकार
##टम
##करताओ
पडन
खीच
43
आदिवासी
##िफट
सबधो
एका
टरनामट
बढो
जियो
जटली
परोफसर
बोलन
##कप
मानी
##रता
इनस
what
वयसत
गदबाज
इनकार
##इयो
शरत
सदा
मिशर
उठाए
जाम
वल
परका
पररणा
लस
भोजपरी
पजन
तलसी
##खत
रत
एसोस
परिचय
शोर
बढी
करोडो
पराइवट
अपडट
डायरकटर
##लीय
गत
अमिताभ
##ारड
##रच
##udi
गाज
all
चयर
अभिव
विदयारथियो
पप
44
##ोई
बराड
सखत
यातरी
तयाग
अतयत
दखिए
##ata
खारिज
धारण
जबरदसत
कषतरीय
##पीय
inter
पाठयकरम
२०१
this
तीसरी
छोडन
हिल
##तरण
अतया
02
##ru
कायम
पग
46
चिप
रिजरव
##जाति
##छा
पराना
सरवाधिक
परिवहन
बलट
समति
##सवरप
##ोश
new
##गाह
होली
करात
##बीसी
बनाता
गोलड
##डिट
गराहक
pm
सथिर
आइए
दाल
कपिल
उललखनीय
विधाय
##मिल
##िनस
जताई
नामा
##िकोण
नीर
कारयकरमो
बाधा
##बब
सयो
bl
तरि
रिजलट
##मातर
भत
##फरस
सहमति
झग
सविधाओ
##मय
मदर
इफ
नौकर
सहार
घस
उपभोकताओ
फरार
##योर
अधिस
बलाया
वकष
##लिग
परचल
07
कपनिया
कोट
जसटिस
कालज
पनर
मनोरजन
शताब
सचिन
इदौर
##खो
अभयर
दौरा
बाहरी
ऑर
थाम
डालन
##भाल
साढ
##राग
लिखित
मजर
##खन
राकश
रडियो
रकम
चडी
नवा
##परदाय
धोनी
दवितीय
बलो
अशलील
भाषाओ
##चिव
आधी
पाठक
जोख
आचारय
अभिनय
आरभ
बिद
इटरनशनल
मारपीट
04
##परिक
तयोहार
तलग
यश
सनत
इट
##ib
यकत
अतिथि
##सवा
इसतीफा
गरभ
टककर
एनडी
आकरषित
जञा
समकष
गोवा
गससा
##able
गायब
उततरी
शौच
आएग
your
इटरवय
सपशल
बीमारियो
सदी
भौतिक
अपमान
दाय
##for
यजरस
औदयोग
##du
तस
परतिनिधि
धोखा
नस
होठ
सय
वारा
आयरवद
##गस
बढोतरी
समरपित
जोखिम
शोषण
निच
##फिक
कबिनट
fac
टरड
मलायम
यवती
##ha
मट
जनमदिन
सरोत
बजा
निरतर
पिछली
चरितर
लीग
##ॉम
जोडन
##भि
वयकतितव
रावत
अतय
चिल
सदन
सटडियम
मागी
बरतन
शरीमती
##परक
नयनतम
##ram
अनना
उडान
ततकालीन
करवान
भया
धात
##दिरा
##कथा
अभाव
##अर
अडर
सहयोगी
06
विदवान
##डकर
कोरस
सरचना
पाप
##णसी
कबल
शिविर
बलड
राची
64
दिवसीय
आध
मजदर
दखो
##मख
दीपिका
बनिया
सवदन
नकसल
औदयोगिक
कण
##ry
गीता
रिसरच
पाइ
सनय
झड
मजफ
चावल
##थक
डिवाइस
राजसव
राजयसभा
ऊचाई
नयायाधीश
भागय
अबदल
ऑडियो
फासी
##बरा
फोर
माफी
ऑपरशन
##ाराम
गौरव
अजञ
हीरो
वाराणसी
रायपर
##एडा
##कषर
जाप
##कड
जरमनी
परवत
सोनिया
खासकर
बजरग
हव
##िडी
##दरशन
शयाम
सीता
##करमी
मारा
03
##बॉल
बयाज
परोडकट
डाक
##वित
राजनतिक
मोटा
शीघर
सकगा
लमब
नश
##जट
दवता
कोतव
आगरा
जानना
चिट
तीसरा
समपरण
शिश
##ue
जनपद
##वरड
गाना
##ोगी
em
लपट
मोरचा
##दना
पाउडर
मितरो
सिफार
##दायक
दिखन
##ौली
लगाना
ag
समझत
आतकियो
सिविल
गिन
फरम
52
सरवोचच
उभर
कटटर
आकडो
कोन
##दरा
जाद
##पडा
कहानिया
धप
##पशन
##india
परकाशन
आईटी
छटटी
बनना
##ink
अधिकतम
फॉ
रदद
बॉस
अनरोध
150
हज
लडका
धी
##ासा
फशन
बचत
वारड
##विड
बढिया
पीडिता
##चारिक
मजफफर
acc
##पपर
इमार
आकड
परमपरा
दहरा
हगा
सिफारिश
phot
अधीकषक
शताबदी
इसलिय
सपनन
शिवराज
di
इजीनियरिग
##डसी
article
##ोलॉजी
समझौता
कागज
कारयकाल
हारदिक
##बली
परवर
जनसखया
उरफ
##चद
sam
कडा
गोपाल
आशरम
विधायको
##ढा
nm
अफगानिसतान
उपभोकता
man
बटरी
सचचाई
राजकमार
सपीड
बनती
जवानो
अजीब
##करमियो
##ाइड
निवास
सकन
दरवाज
आईपीएल
ससथ
रवाना
पारटनर
जाया
विपकषी
54
सवाए
पमान
निकला
आरएसएस
उपसथिति
खट
##ell
par
मरीजो
निगर
सभाल
बसट
अधीन
कशल
आमतरित
##तिषक
चीफ
##एग
सटाइल
घोटाल
परमी
56
अमीर
उतसव
ऋषि
सरश
छठ
खि
अतयधिक
सबज
##iew
op
अगरजो
पराय
##लपर
औष
वरषा
wor
सबजी
दिलान
बिलली
परशासनिक
फायदमद
कावय
बाट
2000
##udio
##port
इकाई
बोलत
दः
इमरान
मरीज
रखती
विडोज
निगरानी
##वासत
गपत
मनज
लापर
##ौज
मचा
फि
एकल
इडसटरी
गरड
तीरथ
अनसचित
rgb
महासचिव
राजपत
##10
आतकवादी
निरीकषण
##ाइयो
एकमातर
मटरो
हकसा
रावण
##नाश
मकर
एसडी
विजता
खिता
शभकामना
बगलर
##शासतर
##िखित
रनो
घटो
मकश
##कोश
नन
नोएडा
##ॉयड
अनन
हिससो
सामहिक
इदिरा
नारी
असफल
कामयाब
मायावती
आरम
आमिर
तरा
hsl
ऑफर
घन
बाई
छातराओ
##सफोट
##na
रिया
नरस
सतपति
##ायस
##ase
##वारा
नित
दषटिकोण
सरदार
##ld
##दात
विसफोट
##line
करसी
##करार
हलकापन
आरोपो
जीबी
ढर
धक
दरधय
विनोद
400
कलश
विदयारथी
शरषठ
2007
शिखर
रोशनी
##भारत
उललघन
##शर
डीएम
अधिसचना
##ise
मिलना
वयापारियो
परिसथितियो
सरो
छप
पनः
पाना
मजाक
one
रोटी
so
नरम
जितन
##िणी
सतान
##नाल
रसी
मसतिषक
भस
सौप
सविधाए
हकसाडसी
कषति
हकसाडसीमल
##vious
can
खाम
नतय
डाकटर
गोरखपर
##वासन
##टीवी
कटरोल
माइकरो
53
मिलग
##फरड
पलासटिक
हिरा
साधना
##षी
रमश
##रीकी
अनभ
हडताल
कमयन
चयरमन
कराति
##वात
हलक
##ect
##out
बरोज
ससथानो
पाती
##चारज
दलितो
मानो
चडीगढ
शट
बालक
खोलन
मणडल
हसताकषर
जोडा
दिनश
लहर
सवरग
गलो
##ount
http
बयरो
72
टिक
fe
मकसद
मिरच
##pur
दहरादन
अलपस
बझ
webs
अतरिकष
आधया
दखता
##वरती
समझौत
मिलियन
दखभाल
रोम
चोपडा
उचचतम
घाटी
नतिक
साजिश
##कोट
##तीत
मममी
अभिषक
लाई
मरन
गहरी
अमल
##ube
मानन
free
परतिस
बदर
##ॉड
चपियन
##चरण
pri
ईमल
अनया
sa
##धियो
परकरण
गौतम
ससत
वयाखया
दतत
सोनी
ऊची
अकाद
ततवो
नजदीक
एसोसिएशन
सतरीय
मोट
नहा
जानिए
पोसटर
रफतार
सवालो
अलपसख
हरकत
##पथी
previous
नियतरित
##ated
आधयातम
कहकर
सवचछता
##कषी
##पच
आयकत
दार
यकीन
##कषट
सोचन
पदध
बॉडी
सनिको
सोचत
नकारातमक
सरख
57
सनिक
डराइव
लिखत
हलदी
अमरीका
##ere
काउ
मतक
एकटर
वादा
रिशता
बहर
##वासतव
कराना
gr
उपयकत
भरत
दिलचसप
गरीन
##ातमा
सिगर
हिममत
डट
सवदनशील
##इल
##ावर
mob
विडियो
वाम
मआ
तमन
पबलिक
आगरह
लाइट
दसतावज
अफसर
हिरासत
193
शरीवासतव
पदारथो
जोन
##ric
##कटरी
बललबाजी
दीपावली
जागरकता
वारषिक
##वालो
एसटी
sm
पारटियो
शरदधाल
अको
रश
inst
लोह
जयती
नवीनतम
महततव
आदर
रोगो
टरम
नामाकन
वसतओ
eng
##ऊगा
जॉन
विशषता
use
जिलाधिकारी
एसिड
घी
##ाजित
##कला
गवर
hind
##हाई
महगाई
धमा
##ake
गरीबी
नतीज
जीवित
गरीबो
भटट
next
समबधित
टाइमस
सजीव
दि
ओलप
##ep
झटका
##सिया
छिप
समसयाए
lat
सीर
दरवाजा
विकरम
थोड
जझ
हसी
##कालीन
बका
##साई
पवन
कटौती
जागरण
चादी
अकबर
फोटोगरा
डसक
अधर
##माना
साथियो
##गरसत
##कय
अभिय
##वरष
live
ससदीय
बहमत
मिशरण
आनदोलन
##धिकारियो
##वया
कासट
किसम
अनरप
आसथा
शरा
सीसी
खिताब
##इया
##िगस
sk
##पपा
आधर
मनान
पोषण
आभ
परतयकष
टकनोलॉजी
एनसी
परसत
खलत
58
जक
चलाया
##िफिकशन
दसत
साउ
##विजन
मनद
डबल
59
कोतवाली
##ाइम
हजर
सरच
tw
रपया
मकअप
ser
तरीको
महर
sex
पदाधिकारी
सवाभाव
रोगी
पकडा
साइकिल
खरा
परोटीन
आकरषक
गजल
बतौर
पडोसी
एयरपोरट
##लोक
कसट
##ong
दरशा
##शरी
1000
##धीन
एकड
##ance
शासतर
भोग
उदध
भावनाओ
एसी
मघ
करिक
अधिकारो
ठहरा
ठड
##वदी
साकषातकार
दीदी
##day
ससता
करडिट
68
दोसती
खासी
रघ
जमानत
छाया
##oin
##रवाद
दिसमबर
##आइ
पनल
रिट
विचारधारा
शहद
ऑल
बनत
##मिट
तवर
रगो
##शिक
नवर
बरहमा
नाथ
आरय
रास
रिशतो
##मडल
वारदात
##ौड
##ोतसव
घटनाए
दरजन
सरा
ठोस
बारह
समझना
शरदधा
रियल
सराह
उततम
आरा
तमहारा
लडको
गरव
##ाजत
दड
अजञात
इलकटरॉन
उतपी
वासत
##act
फत
सवाददाता
सरकारो
जना
ठक
लाइसस
ससथाओ
पायल
##डरो
शबदकोश
लापरवाही
रातरि
दशमन
काशी
##ical
मानक
कतत
कौर
##खान
टाटा
गवा
हरि
मनीष
टल
ko
होश
तयौ
टरनिग
##एससी
##ानद
आईए
##ame
##कित
नमा
कलाकारो
पषठभमि
##askar
पारित
सभाष
how
##ाब
##धिकरण
##ऊदी
आपतति
परचलित
शरीनगर
##नति
सतया
##lect
सिचाई
विधयक
शतक
##ala
हमस
हकी
एडी
##ानत
वॉलपपर
नाक
वरना
62
yout
परारमभ
कतर
##ोकस
बठकर
सामराजय
##सथल
##धक
यरोपीय
##बबत
बोझ
ओड
ओलपिक
तीवर
2006
जिसको
##धयाय
दक
##ारस
पाद
पारिवार
निषकर
aap
ro
कठोर
##बीन
soc
शौक
चरच
घमन
कामका
नाल
बायो
कलो
उरद
सिम
लाए
लीजिए
ठहर
##ईओ
रौ
बनरजी
##ss
कमपनी
सबत
दषकरम
उलझ
निस
##सथित
##रश
टाइप
तयौहार
##मारियो
ससथाप
उतनी
परीम
गभीरता
wind
वजञानिको
आतरिक
समल
##ood
निरयात
कारयरत
बोर
लीड
जिदा
निल
##सवती
पहाडी
आयात
##िसी
मखिया
चरम
कीजिए
पारिवारिक
लाच
लकडी
##धानिक
मिठ
##ईडी
सीनियर
अफसरो
पतरो
gen
##टको
राग
छटकारा
आशीरवाद
लवल
सवीकति
##धितव
अहमदाबाद
bo
##cl
पहाड
दरजा
आपसी
website
पित
##ebook
जञात
अवतार
##खयात
गणित
नाश
whats
लायक
काटन
##िगध
महया
उदयपर
गणना
##लिखित
माधयमिक
अभिवयकति
मनमोहन
##पाठी
##गली
##णीय
दःख
सपरण
co
करमियो
महश
जौ
पीट
##सियो
१०
जञापन
बरफ
वाण
कथ
कमट
एगज
आईएस
हिदसतान
चोर
नीतियो
महदर
लबा
गरज
सटोरी
now
बढाया
##बडी
कमाल
झील
बनियादी
सकसी
are
from
डाली
फास
उच
##bi
नद
सरसवती
फसलो
##लभ
63
आपदा
एकशन
पटा
परतिनिधितव
किशो
##मरी
##डीपी
गदा
बिगड
इचछक
शरीफ
कॉपी
दिगगज
हवाल
bhaskar
मोहल
##मरस
शिवसना
पठ
आसमान
गरल
राजकीय
पराम
घडी
##ge
##वसत
वयावसाय
##ani
कना
सऊदी
निरदशन
डिफ
हॉट
चौकी
सहिता
सथायी
मखरजी
indian
##परव
रोह
मनजर
डॉकटरो
##षकार
करिस
अनश
डरस
मतरियो
##मरश
##आईटी
##पोर
bi
गरग
उतकषट
##लीफ
latest
एससी
भडार
डवल
परयासो
टीचर
आकरषण
##हरण
facebook
उतपीडन
बनद
वचन
सलझ
मलया
भागो
सटील
गरन
फरट
##az
सौदर
शम
यजञ
उछ
85
हगामा
सटाफ
लप
भकतो
जटिल
##दह
मजदरो
डयटी
min
करमश
सनातक
##आरपी
मछली
डराइवर
67
अनष
जागरक
##कलन
कारतिक
पलाट
बिमारियो
ऊच
माला
kh
साउथ
कचच
online
सलस
रहकर
सटॉक
सवाभाविक
##ication
सकरमण
https
शरीकषण
इकट
जोध
विभागो
su
95
##चाप
आजम
अगनि
परवा
col
aug
नाज
वचित
##िजय
बदी
##िदर
निराश
तग
बठी
एहसास
वाई
दवताओ
आगन
अपराधी
अधिव
बरबाद
पदधति
सटडियो
शासतरी
भाति
upd
सभयता
सचित
कबीर
##गरहण
##भावित
भास
अवि
ससती
दशभर
निकाली
पजीकरण
पाणड
बधन
##ॉइड
गहन
सरत
गाल
73
##तायात
रोका
मजबती
रिलायस
अपराधियो
राजनाथ
चलगा
कोलिनस
पाडय
gu
यवको
prad
निमनलिखित
सदिगध
शकतिशाली
यट
##de
जहाज
सीखन
इदर
##ainik
पारपरिक
अधि
बिता
whatsapp
बरकरार
बगर
जनियर
नाइ
##मरति
यज
पहचकर
पोरटल
उडा
##गम
यातायात
रणवीर
##वादियो
मासिक
##ोह
पराधिकरण
मरठ
##ायतो
हरष
##बीएस
कदरित
मासम
##जागर
##ोप
जोधपर
गणो
##phone
भीम
वयावसायिक
नीब
कामना
भवय
dainik
कषट
आखिरकार
पराथमिकता
##मारग
##षमा
भारतीयो
समित
दही
##णिक
##दरोह
##ाजलि
जातक
##lish
हिट
कडली
भन
डस
उपकरणो
उदयम
अवार
अटक
##शिग
निकली
निपटन
वाणिजय
##ानसार
##ane
गिरन
##भड
वरक
पसट
यी
आरमभ
धल
##टीट
चह
दाग
लगाय
gov
रवी
राधा
चतना
##orn
ससथापक
शौचालय
##सवामी
##aw
शरद
तरिपाठी
कमपयटर
##कषिक
##वदन
दशा
##िमडल
बहादर
दफतर
आशवासन
##ौलत
पढत
कध
सबसिडी
थक
सदह
नाबाल
लिहाज
अरध
##चितर
exam
समरथक
बीस
एचडी
71
टग
मटर
78
साइस
##टड
उततराखणड
lo
तालाब
सली
पीडा
चलो
अनषका
ककष
##सटार
##लियो
120
सलतान
##इए
परसारण
गली
गवाल
mo
sy
अकादमी
मलयो
del
69
फम
सरवकषण
e0
बिर
परजा
##थाई
परखड
##तित
एडरॉयड
फटबॉल
रिकारड
जानवरो
मनदिर
पसो
top
##ali
##विटी
सपत
84
बहान
##der
##पालिका
दिखाए
चमत
##िपल
मतदाता
##ॉरक
पहचाया
##ाक
मानय
रिटरन
##sp
we
इमारत
##चदर
##रमण
अधरा
टरलर
पटी
परतिसपर
परतिषठित
परियोजनाओ
यनियन
hindust
##फटी
हौ
जलन
पाठको
इजाजत
लीला
##दत
मदिरो
समरथको
बताय
फीट
पयाज
मनोहर
##बलय
##ोकत
दनी
करीम
mp
हॉल
आलोक
परशसा
कबर
शकला
पशवर
मददन
##arch
माफ
story
शिकषण
तोडन
बताना
##cri
नायक
२००
##रीट
आधयातमिक
भकप
##सागर
मरम
समीप
##पश
महाभारत
##धाम
परारभिक
pat
इसप
##ोरियल
विमरश
परास
dis
times
##हि
मददनजर
शोक
फन
बसती
2005
##दीदा
विशषजञो
66
सकिन
सदीप
छान
##धरा
ओडिशा
##कषप
धवनि
##साइड
तफान
टरफिक
##गणना
पशकश
##दिषट
best
छक
##11
##tm
सखी
उतत
इलकटरिक
भासकर
##मारटम
sub
##आईआर
हकीकत
शभार
मसा
tech
जवाहर
कामो
##uk
मागन
परतिरोध
##ागराम
##वयन
माओ
दायितव
##यरो
गलाब
अपलोड
##ma
##माही
comments
साडी
रोशन
कलम
टीमो
बीसीसी
##ec
सौदरय
##लाग
gener
एलईडी
वदिक
बदमाशो
पतन
hindustan
अदाजा
बाजारो
मील
कदार
निफटी
खोला
फिलमी
धाम
मठभड
गफा
पोसटमारटम
कनाडा
उपयोगकरता
दवीप
कहानियो
fl
मागा
youtube
बबस
सहमत
गरभव
चलिए
वसी
भागीदारी
नारियल
##yp
वयव
अनयथा
वाइ
समपनन
नाव
##माया
##लाइट
किग
##एकस
बठन
यएस
राइ
मलयाकन
अवगत
##xx
विफल
जातियो
bus
कषणा
तसवीरो
धान
##ational
76
मानता
##टरनल
नाबालिग
नास
परिचित
तझ
सई
पसदीदा
raj
दकषिणी
अतयाचार
जिनस
गरभवती
##18
तकलीफ
##ave
रसल
इसन
बरज
##ows
बादल
##form
शीरषक
##नालड
##ददीन
click
आतकवादियो
खबसरती
##ta
नतीजा
##ence
पहना
##ॉस
ठडा
कारोबारी
fir
cre
हारड
दरभागय
पतरी
ईसाई
गहराई
ईटरनल
आकरमण
नवाज
सहन
फकटरी
##घो
अपहरण
कलाश
मिड
जॉब
विभाजन
सबका
निपट
##मोन
fun
सिलसिला
टकड
नकल
परतिबदध
आपात
##गित
पडगी
##िटीज
गहर
सममिल
हलथ
##पाली
चपट
करोध
अहसास
##सनी
धरना
लिहाजा
##टीआई
##किट
टिपस
मारकर
हानि
add
इसटागराम
##ens
तकरी
साप
निदा
बखार
अनो
दोहरा
##ियारो
वाकई
##विदा
मजिल
शिम
वसटइ
##िजम
बटियो
इतजाम
192
हादसा
##view
##शान
गीतो
hd
कामकाज
इकार
recorder
गठित
शकषिक
खलकर
बताता
जोरदार
बया
डन
कविताओ
वसटइडीज
पदमा
नसी
लीजिय
शभकामनाए
मीटिग
नाकाम
शरदधाजलि
डॉट
आहवान
इटली
वदध
पकषो
धारणा
sup
उठाकर
day
पिल
पकडन
कारबन
समदध
आननद
जानवर
तरिव
##परकाश
मिथ
परतिषठा
##परदायिक
बिसतर
खाए
धा
महाविदयालय
छीन
पडत
##पिग
ढाई
परोट
पागल
my
डिली
गसस
यटयब
आटी
अनाज
जबत
हजरत
विदयालयो
##थिति
रोचक
गिरी
##ign
मथरा
सकीम
महोतसव
मारक
शासक
सभावित
may
2004
यदय
वयग
विकर
##घाट
सावधानी
पणय
विभा
उपरोकत
गदो
##वाडी
बहनो
हाथी
##शियन
रथ
सषटि
बसिक
परतीत
शरय
मागो
वहाटस
यदयपि
सशील
छद
आइय
कहला
##िसा
कटरी
डील
रामदव
तलगाना
इमाम
औप
##जोरी
आरती
परवतति
नदियो
करिकटर
cr
##वतति
##चज
पिटाई
एटर
फीसद
सटरल
पदम
250
जरमाना
net
किराए
पहनन
दादा
कनकट
गवालियर
61
##ॉरड
निकाय
मनजमट
आकडा
सभाग
इर
ससराल
##दशी
छोडा
जहर
सममिलित
शॉप
##ारथियो
चरणो
हाव
मौल
##iness
दढ
धध
लीक
##हात
ऐशवर
अकला
##a¤¾
नात
एपी
पनी
टोक
गायक
जानकर
महापर
लिखना
वयायाम
98
सलाहकार
##iss
##जत
##पलस
##ert
मयजिक
परथा
अवारड
##राट
परसतावित
हलचल
गोयल
बीसीसीआई
परदीप
उलट
लकषमण
वसल
शरीराम
विस
अलपसखयक
##जीवन
बलाक
ललित
##io
कपडो
आभार
गरदन
डिसपल
परबधक
उजागर
मोटी
आकलन
परमो
अय
कारयकारी
बनगा
तकरीबन
कपडा
खनन
खतो
सतह
सदव
झटक
##ann
77
बताती
परारप
उपाधयाय
फॉलो
एटीएम
रसोई
दिखता
निया
सीधी
राजदर
शरमिक
नयजी
फाउड
गदबाजी
एकजट
##चछद
१८
सौभागय
##studio
राणा
किराया
mobile
कमजोरी
दीर
##लम
भदभाव
मसती
नाराजगी
##धारणा
साहस
पतत
##बारो
सचच
पषप
पदल
एकतर
जख
यमना
rel
##ोच
पाली
##वशी
दीजिए
गलोबल
पीछा
बनाती
descri
मायन
खदा
पकति
महमान
##ating
जोकि
##गट
लमबी
खलना
##छाड
पिछड
समसग
form
रणबीर
इसपकटर
बिछ
कमारी
पहलओ
रहसय
##िपी
##ire
dev
महता
रजनी
ac
##िनर
camstudio
एडरॉइड
बढाकर
अकित
##ानिक
नमबर
टलीविजन
एपल
तिमाही
comm
##ॉरट
##षयो
एटरी
शार
aur
ठिक
फलट
##कतिया
इनको
सिस
##डनी
##पाई
तरकी
पडोस
दिली
सटीक
##एप
परोतसाहित
दरशक
अनजान
आशीष
छडछाड
हॉकी
परशात
per
मालया
हिर
रकिग
चाचा
अभयरथियो
नल
एकसपर
परफ
74
हिनदसतान
सदसयता
##डरस
intern
जरमन
##बरट
86
##पालन
फाउडशन
windows
कवाल
pay
वितर
काड
ममबई
लाज
अवधारणा
विशवस
तजसवी
लाह
बहरहाल
अनदान
विरासत
तहरी
अनद
दया
##िगो
दोग
##so
##80
मवी
ससाधनो
निका
साइड
वायरस
##वरधन
मानवता
भटक
उठता
शिर
नकली
अनयाय
इशारा
उपलबधि
आयकर
सोनम
जापानी
##ारथी
##तया
नयजीलड
मानवीय
आला
सयोग
पढना
##ातरण
कीर
घटन
नकसलियो
##बरग
##आउट
मौर
इसटीट
##ारायण
चमप
उठात
दलहन
##नामा
उपज
चनलो
##ics
description
अबानी
अजमर
##जवान
सखा
छन
अरचना
वसतर
निरमाताओ
कनन
सीईओ
पदाधिकारियो
##रामक
आतमविशवास
##फारम
##सटट
##सपी
##ातीय
डोनालड
##वाहिक
भाइयो
तथ
सपलाई
चनौ
##22
कलदीप
समापन
##चनाव
जाट
परशनो
##सपिटल
जव
कीजिय
##शिगटन
हली
बराउ
##बिल
सौपा
##press
इजा
जानती
get
लिखकर
शरो
करवाई
##भद
##ace
hot
योजनाए
##oll
जनजाति
आरमी
सीरिया
12वी
वसली
fil
शिमला
##पीएस
दवाओ
ईमानदारी
सतरियो
लपटॉप
मानसिकता
##वाट
##शियल
##ारटमट
पहचत
शनय
पालिका
दकानो
झलक
अभिभाव
##गठ
लोकपरियता
सनात
रमन
मौजदगी
उगल
गरद
अधयापक
मलटी
##alth
सटारट
##िकन
जटा
परच
शरीदवी
##कषणिक
समदरी
जताया
फरच
##मिन
##विनद
यार
सरखियो
करीबी
नमाज
समदधि
पछन
जोश
पटरी
बदलत
br
बोतल
गलाम
किसमत
अखबारो
वट
पौधो
फायरिग
हसतकषप
rs
ऑपशन
##राई
सरी
सवराज
account
नामो
sch
टरडिग
सपस
इनदर
##जवल
कवार
उपहार
apk
घाय
घोड
बचना
कमीशन
business
सलफी
रॉयल
##आरसी
साय
परमातमा
हॉसपिटल
परिया
मीन
कथन
मारकस
सासदो
सवान
बाय
मीना
##पयोग
एमबी
टरॉ
गरो
##तरियो
pradesh
पायलट
जाग
महम
काज
##ाइनल
नौजवान
यतर
##ौदा
##मीन
हरिद
सिलसिल
तौ
उपचनाव
82
##वाग
निरदशित
##काय
मणि
##िसटरी
डसकट
मजदार
part
आपरा
वरगो
बादशाह
सालाना
##ाइनरी
##पीठ
तड
##टिव
सावधान
नीरज
##बाब
राशन
##िपरा
वयास
चच
हितो
पटटी
##con
##df
टयब
##शलक
कठिना
मसीह
लाश
सनना
राध
डसकटॉप
##he
##नाइट
##ानिया
सटडटस
१५
परह
होठो
माद
कलीन
ऋत
hel
विदशो
टय
लाना
##30
कसब
राफल
आका
बरसात
सतलन
फलान
एफआईआर
##ोततम
ईद
##ern
##ौरा
jul
परिश
कामयाबी
do
सथलो
एथ
हलकी
##पाही
उगर
अछ
बनर
कदरो
शाय
कोटा
##लल
हराया
share
लटसट
मानसन
लात
हाफ
चलना
शाहिद
गारटी
सकगी
tra
सौदा
a4
medic
jun
##मप
सिपाही
act
टरसट
यथारथ
##ायती
##iksh
छपा
मलिक
बाड
##साइज
होल
विवादित
खिच
ईधन
महो
चरचित
##उसिल
घायलो
##लित
परीकषाओ
##शकति
टप
mark
निभाई
मानवा
पाट
बरोजग
गमस
मारी
general
निचल
सीपी
आयष
परणिमा
##कालिक
सरदी
आगमन
##jp
##बलो
आलम
सवदना
परिजन
सतषट
शकषणिक
करतवय
फली
job
सलि
राखी
चौथी
नियो
डग
##दक
परसतति
टीन
oct
##यरस
फफ
समहो
अरपित
##दोष
आपराधिक
##इग
मामली
अमरीकी
अनपात
वयय
१२
sing
##आन
निवार
##ual
लौटन
अनपर
पाकर
विदय
2002
निख
अफवाह
काउसिल
भजी
##air
##विधि
जलवाय
दिलीप
गौरी
परामरश
##मला
##काड
परिसथिति
एरिया
अकत
##खय
पारवती
वाणी
सयोजक
गराफ
नमन
##षठी
सषमा
##ka
##राइड
एकी
गरथ
सगम
पजाबी
समानता
मारगदरशन
##igh
edit
दरग
निदशालय
घात
बनारस
88
##फिल
2003
बोध
अगला
सपनो
मरद
##ock
यीश
नकषतर
रिम
दरबार
ma
कोय
##बज
##ode
##परम
पोट
##जरस
कहल
धीमी
राठ
निरधारण
##a¥a¤
सिगा
bank
पमट
भिड
दिखात
पाचव
महगी
##ोलिक
साझदारी
आपरतिक
##कॉम
पढकर
बालिका
झक
##गीन
एकाद
परदा
परोस
time
महीना
##ms
mein
जिलाधयकष
सभवत
बीवी
राजनदर
वाकय
कयकि
##लीकशन
जगा
इकटठा
फाइबर
cap
मिसाइल
##aya
अशव
टाइगर
link
mon
ससकस
##olog
##धना
बथ
एकसचज
पलटफॉरम
##सराय
आउ
काग
मतदाताओ
87
##बिया
##ates
जशन
माय
दशको
शिवा
सातव
##पोरशन
एजसियो
##परि
##लीन
परशानियो
समगर
##मथन
बची
कागरसी
ढक
लहसन
एगजाम
##ासक
##िरमाण
पाइप
फतह
##एमएस
बजाए
##ions
खाल
सीरियल
चश
रसत
फोटोगराफी
##िडकी
मिज
पकषी
कास
##दरह
बब
निशचय
मोटरसाइ
हाज
साहितयिक
रसायन
##बाग
तात
आरबीआई
##वरत
बिखर
चाक
उननत
नयायिक
डालत
आसटर
##फरत
94
हमलो
बॉल
about
##विदयालयो
##लास
बाथ
result
आओ
वरच
##दाशत
हयी
##तौर
shiksh
निवशको
इसटीटयट
बकार
96
##टियो
अलप
इजाफा
##ull
##ञा
दादी
##ature
खरीदा
शयरो
भडक
गाडियो
लनदन
बरन
##लीज
##99
सवधानिक
दखिय
एमपी
ऊपरी
word
परिवरतित
मालिश
परिट
नह
वासतविकता
परयटको
पारषद
मसर
नयायमरति
##डम
काय
परक
सध
नरश
डबलय
##सवक
##ावत
पचास
jan
गवाह
sw
मथन
जलस
##गीर
उठाना
दीन
मदन
tag
उठी
चलकर
##काव
ऑकसी
##शाही
रामायण
ऊचा
दवर
दहज
##ोततर
विकलपो
शत
चयनित
##जियम
##फस
दातो
83
छिपा
रजत
बोन
##यातरा
खिडकी
सिगापर
परभावशाली
भरमण
फोरस
करातिक
##arat
##चालित
सराहना
play
उदार
सियासी
mic
##ियाबाद
आदिवासियो
##मानी
विदरोह
लाकर
अतीत
आईडी
पिताजी
##ips
कटरीना
पटरन
दबई
##ages
##िथ
सबकछ
delhi
81
मोती
card
डढr
नमस
##आईसी
##anc
कति
600
परसनल
लनी
##यनत
##िपट
मानकर
##िटर
जररतो
दीकषित
##थान
हारट
##ix
समरण
परिभाषा
निकालकर
डल
नोटिफिकशन
नाट
अनचछद
सपरश
किम
##मनिर
search
##ॉरन
##फाइनल
वकल
सचमच
##ound
शभारभ
रिव
गध
सवानिव
कराइम
रोब
पोषक
##ye
mah
फीड
92
##ower
soft
सटिग
नवी
भीषण
ii
सारथक
##दरशी
मनना
media
ढाच
##ोनशिया
##माड
la
अनराग
jo
##now
##तातरिक
परसारित
भागन
हिनदओ
इसलामी
पराग
वीक
97
photo
ye
अषट
##वाकर
पजीकत
पीर
मजदरी
खफिया
##वजा
निराशा
विवादो
वयगय
बसा
कोशिकाओ
टनिस
विधा
एसडीएम
कॉफी
किताबो
हवाला
##टीसी
निरण
कारक
इवट
लखको
परजात
##kh
dec
##शीलता
शोभा
वकलपिक
सवपन
that
##ावट
नफरत
चलात
खातिर
मिया
महादव
रजिसटरशन
एजकशन
बरड
बदन
अमतसर
घटी
दिवय
बकवास
##मारक
नमसकार
रहिए
पढी
तलवार
नोक
विनाश
परमोशन
सरजरी
निभान
गाजियाबाद
साइन
port
सनह
सटोरज
एपलीकशन
##ember
हिमालय
लोड
अगरणी
अवकाश
mot
शाही
चितन
नयय
अनबध
ऐशवरया
##ॉग
दसतावजो
अगरिम
परयतन
पाचन
आवटन
हथियारो
परशर
चाट
##गरो
महममद
चदन
शरदधालओ
गरहो
टड
राशिफल
##uck
टाई
कॉलोनी
##परति
##धीर
##कारियो
हरिदवार
निषकरष
कोष
कलडर
मोरच
बकाया
डिपटी
खातो
रिपोरटस
सामर
et
पाणडय
##मपर
कमिशन
##डबलय
कोमल
विविधता
सचालक
एनडीए
रिशतदार
bjp
##तता
जवल
##दशक
मधमह
समराट
परोफाइल
पीना
टरनो
रका
माइकर
योन
टरासफर
तोह
करीना
असिसट
iphone
गजार
फसट
comput
निधि
##जील
हॉलीवड
समबनधित
##टि
met
##ware
दआ
घोटाला
माननीय
##विजय
इमज
टमा
मिठाई
चिड
##घात
91
नययॉरक
कपटन
धकका
##सला
एसएसपी
पहचाना
ओब
पतला
परोतसाहन
लाभदायक
##ents
##ॉकस
आचार
परसग
##बबा
भागवत
phone
बरली
गदगी
पीस
एलब
पशओ
चितित
महिम
महततवपरण
अकतबर
करट
##eng
भषण
गोपन
छल
किशन
##दाज
##िमय
हराकर
अलीगढ
##शव
##बलस
साइबर
पीडितो
##मड
विनय
सपरसटार
कषमा
बहसपति
रिग
इलकटरॉनिक
##सह
मया
set
सशकत
##oj
bit
इजजत
##यीय
##जीन
एकसर
रासायन
नगी
रहस
गोलिया
##वसट
मोन
एपलिकशन
गाइड
गिनती
बाइनरी
मौलिक
गाली
असपतालो
800
मधर
pe
बराई
दीरघ
पासपोरट
सजञा
सरपच
id
health
दाह
आजञा
##धाना
##षटी
नायड
दसी
मोटरसाइकिल
आलिया
फरश
कविताए
wat
दरशाता
लाभकारी
फिटनस
आरटिकल
##सरजन
लखा
सबकी
##riend
उतसाहित
पोरन
2001
बशक
##आम
आसन
गवरनर
सीसीटीवी
मराठी
दखग
निरमल
##60
सोचना
तथयो
जानकारिया
vir
एकर
दामो
पील
राजमारग
चरा
चदरमा
बदमाश
सोचता
गारडन
छापमारी
सतीश
तपस
ass
##12
मीरा
टमाटर
आलख
लापता
मयर
चिहन
po
##डकप
रजन
सधा
करमी
फडर
मरख
सवीकत
##mi
फिकस
आचरण
##बाई
तरज
##बान
अभय
ननी
मोम
##काक
ततीय
##led
बिलडिग
93
##टित
सिदधारथ
अधिगरहण
रिहा
समलगिक
कारयशाला
टच
असी
डड
##उर
##जलि
रासायनिक
परगन
##ife
##ike
##पतियो
जोडकर
रटिग
##arn
जीतकर
अनशन
फीलड
इनकम
जटी
सचची
गरमियो
शानति
दरवय
टिपपण
बढगा
सतत
aut
utt
मजफफरनगर
##भाई
गिरोह
कभ
##रक
समायो
परिणामसवरप
##एमसी
अगवाई
190
##बास
##les
फीचरस
अधयाय
सकली
पयजल
असा
##दड
अगरज
निहित
मष
##वाए
##विजञान
गिलास
जगदी
गडबडी
apps
##bo
जबान
##सिस
परको
##िवश
high
परयोगशाला
सठ
##कचर
हिदओ
मासप
world
इनफ
उगली
pdf
मलक
मतरिमडल
टाग
उदयोगो
कज
कारगर
दीजिय
सथितियो
अरजित
फमिली
बरकिग
##40
अडड
फरीदाबाद
##धडी
मनि
वयर
टरकटर
##यप
##गाई
इगलिश
##बझ
##rol
लौटा
सवक
अनभवी
अगो
लाठी
##ियाना
दीवान
##करस
इडोनशिया
कोयला
उतपतति
चढा
डविड
अतिक
reg
सदियो
पराणी
##ादर
जबलपर
शगर
परिच
ऐड
चौराह
##ाजनक
निः
गतिविधि
सलरी
##वाइ
लोकतातरिक
pub
सचचा
रिकत
##शस
##ple
##िगत
डीजी
मिलान
बरॉड
##लाद
बरथ
##ke
जॉर
बसो
रपो
शॉपिग
विडो
घास
मरत
सपोरटस
धडक
जगन
##कद
शिषय
जएन
औपचारिक
बसत
##ors
आसटरलिया
##चिक
##राशि
कॉनफरस
परबल
##दरशखर
रामन
साहिब
पीएच
##पलर
जप
रिटायर
##िडट
धमाक
रिफ
एबी
पौरा
89
##ियमित
थोक
##जीर
उपास
दवाई
##एड
विजञ
दशभ
तबदी
भरोस
उबाल
##ene
नॉर
असह
सिगरट
##a¤¾a¤
##टनमट
रोगियो
असारी
##साय
##lection
निकलत
चितत
##डय
uttar
page
माफिया
उलटा
हारमोन
नीव
समझता
##aster
medicine
अदरक
लाय
today
##मास
गयार
अगन
##कषय
हिला
चाहगा
घण
परधाना
सवचालित
किडनी
stat
अपनान
जिनको
निवारण
बताएग
धरय
कराय
जडन
परतीकषा
निलबित
समपरक
सौद
डायब
परतयाशियो
खासतौर
computer
विभाजित
मिरजा
वीरय
होसट
गारड
79
##राषटर
hain
रिशवत
फोकस
आवशयकताओ
अनशासन
ind
खग
first
टयट
चतन
नाच
##ातरित
शकरा
vs
परवीण
will
##ext
सखद
जगलो
बरिज
##वाहा
##दायी
डीसी
बढगी
मजिसटर
##एगा
तहरीर
फिगर
##खल
सीओ
एनएस
फौज
पासवरड
असिसटट
हानिक
झाड
बनगी
गलाबी
औरतो
टयटोरियल
अनपरयोग
भयान
##वहारिक
शायरी
vid
पिन
##urr
##टज
##24
आईसीसी
पौराणिक
दरपयोग
रॉय
खाया
दनियाभर
परवरतन
##जहा
उजजन
##कानर
जगदीश
अण
खपत
समीफाइनल
##षठा
किलोगराम
जौहर
कमयनिसट
बोलड
##हद
विहार
शशि
सौपी
वितरित
कसम
समझाया
हिससदारी
मददगार
पायी
निगाह
सीडी
पडताल
##चि
विनिमय
सटटस
पसतको
मआवजा
तिलक
तवरित
उठन
सितार
##दशा
उमश
हानिकारक
महग
##इय
दिखती
समझान
साहितयकार
उपवास
सधया
रफर
चिद
ऑफिसर
उमा
नतर
जबरन
##षभ
नितिन
उदा
परीमियम
##atur
अफस
पटरोलियम
अमा
##पीसी
दखती
रोन
साधा
जोग
10वी
कवारटर
पॉलिसी
कतल
मजफफरपर
मसीबत
नागपर
##वाका
तयारिया
मरममत
तारा
##बनध
डबय
चलाई
खोजन
करनल
सनसनी
डमो
छतर
file
##लीला
बरल
खाई
##जीवी
डायल
नशा
videos
परोडकशन
समक
सबजियो
##कथित
वहाइट
but
एनजी
विव
ओबामा
जोडो
अकषर
##बोरड
मकदम
जनक
बिलास
टी20
पयास
शकतियो
##शली
फिज
औषधि
तयारियो
टरॉफी
##ईई
बहाल
ताना
पकार
बीकानर
आमद
अपनाया
##ताप
रचनाओ
भयानक
नरमदा
मानवाधिकार
main
##बानी
अलरट
कॉलजो
यौ
बबी
##चात
निम
नीम
चमतकार
##ौरी
##itter
तथाकथित
विभागीय
रिलशन
review
##बट
मनन
गाया
लोकल
दशी
##ढियो
ताद
लबाई
करमा
##चारण
बराजील
अतिकरमण
फरसट
##wor
वीजा
##कोण
रबर
##its
techn
दिलाया
पका
##live
##महल
हनी
##िनल
bre
दरजनो
med
डाइ
##पतय
##िदा
फरड
एमस
bas
नकसली
चिर
चस
खरीदी
##मकिन
आईसी
##किन
कहग
फलाइट
##रषि
सरदर
शरट
अभयरथी
ठहराया
tv
##ade
उननति
टीका
##ys
सावन
मतभद
शासतरो
काबिल
सती
cent
धोखाधडी
खनना
रहित
##era
##एनएस
##जाद
घिर
##ich
##ings
##ruit
डवलप
##ौफ
दविवदी
बारीक
बराबरी
अमन
मिनी
कारयान
खशब
समनवय
परिपक
एलबम
बादाम
परयटक
इसलामिक
रीति
सचकाक
यनाइट
आडवाणी
अरणा
मरया
वयापारिक
दिलो
बहि
बाजी
##डीए
##डयल
शाल
##भति
बाए
चोद
सिदधातो
मिसाल
चपियनशिप
नोटो
गरलफरड
##िसटल
det
हरानी
फसटिव
वरदान
एजट
११
शरतो
फिस
रसट
बिलासपर
सवादिषट
org
एकसरसाइज
##दायो
मोकष
शिकषित
फलन
तप
मचछ
serv
बरोजगारी
परवक
##टरनट
ईमानदार
परायः
किशोरी
##जाब
चसन
##वण
##gram
inc
निकलता
##रर
फसा
##फरी
फलोर
वोल
विदवानो
तरिपरा
recip
##षिपत
लगगी
गलास
उपयोगकरताओ
चपचाप
छाती
##शियम
बाघ
परिपकव
कपचर
मनाफा
राजनता
महावीर
नियामक
चिनह
उदयान
थकान
##गरप
कारयकार
singh
सयम
##get
गहम
मौरय
हयर
##मिया
सभालन
शतान
बदक
खज
परतिदव
परतिबधित
recruit
रझ
सापरदायिक
चलाए
परमाणित
पततो
quest
गरजए
समपाद
विशषकर
परतिभाग
kah
उपायो
सवारथ
##छित
नारा
चौथा
किसन
करियान
दरलभ
परमिका
यनाइटड
मौन
##ement
ईरानी
घबरा
##पको
##ung
बित
शॉट
एनसीआर
##वरा
सधारन
##शाक
खनिज
चिकितस
खरीदारी
##eet
##जीबी
##िदशक
##man
सामानयत
चारा
##मीरी
तबदील
तया
##मम
आईएएस
तबाद
पलटफारम
बाथरम
काठ
राउड
##ery
ऑयल
##कती
बदौलत
एकसट
xxx
फलिप
##थापित
कॉमडी
समबनधी
पहलवान
लाहौर
उतरन
##यको
कमरो
उतारा
समाव
दिगविजय
सनाया
उठकर
dr
सजी
जीना
घातक
हिसक
सगरहालय
av
##िदान
रोबोट
टरो
राकष
निषपकष
वाटर
inext
शिवपाल
##नपर
##ोततरी
##गिन
दलाल
twitter
महरत
दिलचसपी
अरो
अचल
125
डिक
सवयसवक
##be
मनषयो
##भाषित
शासकीय
लटक
भयकर
इडकस
तरककी
कए
यपीए
गयारह
##िविटी
##िलाई
data
लटर
##yo
मजिसटरट
##मानय
बगला
सोसाय
दबग
परतिनिधियो
1998
1990
रित
एकादशी
किसस
एकतरित
quot
english
उपासना
##rig
हाइडरो
कहलाता
मसकरा
##जिकल
वनस
##ॉपटर
वयावहारिक
##irl
##डोर
email
कजी
घटनासथल
चाली
एकटिग
नाइट
निजात
मदा
मव
अपित
##enc
पढिए
सिकयोर
##घल
मसाला
##झा
एकटिव
डिपलो
##तिथि
रोमाटिक
डिसक
recruitment
##ories
विलियम
दबान
जनगणना
शिवलिग
थाई
आरोपित
वरिएट
ads
साकषी
मारकटिग
##इडर
##तिम
योनि
सजञान
सपरधा
परिणामो
ननीताल
झगडा
कॉमरस
फलश
निरीकषक
पिछडा
##कोर
दोहर
आयरवदिक
आहत
निवदन
अभियता
जवर
रहो
कदारनाथ
ba
असभव
डायबिटीज
जविक
##adh
##ian
##परत
##परटी
घसप
जरनल
महरषि
महदी
बहजन
एनरजी
##ds
कॉमन
साइज
हकट
महिमा
बरदाशत
##ale
महाराजा
##19
micro
##पार
मजबरी
##ोरटर
पसी
##वाइट
##कमारी
अजीत
पीत
मोल
सोसायटी
करिश
rt
करातिकारी
छपी
रखग
बताओ
चिकितसको
##चिग
सरवर
##सान
उभ
विशवविदयालयो
कतार
##िह
##धव
##कारट
1999
ढढन
उतन
चीख
##बडकर
ob
टकर
झगड
ऑरडर
घसपठ
सरट
परिवश
सोत
बीमारिया
पीय
कशयप
बीडी
टटन
राइट
निरदशो
बनाम
जौन
सिखा
बकटी
असाम
विपण
पाएगा
नाना
वयापत
परवान
आराधना
परयकत
##पप
##दलकर
##बरम
एर
##पिकसल
चारट
class
बढाना
नकदी
##fer
##बिन
अधिवकता
नगरी
##aking
राजयमतरी
ओबीसी
पवार
##सिल
जदय
मदरास
##57
दिवया
आशिक
आकरोश
program
पराणो
शमी
तदलकर
##17
##बाडी
जह
##जाबाद
मामा
जीवा
जीभ
apr
पराइमरी
कारखान
चौकान
वषण
मसलन
price
टाल
सलसियस
माई
सबन
##वाब
सोया
फोड
##चनदर
friend
सदरता
elect
सरसो
नपाली
मलशिया
सतभ
feb
दखल
सनदरभ
##ks
जबरदसती
book
चिकन
कॉरपोरट
सशोधित
लालच
ठकदार
परमोद
कोचिग
कमाऊ
बकर
रडडी
सीखा
वापिस
परफॉरम
oneindia
बसतर
हाईव
big
गरसत
विगत
गोलीबारी
किला
site
लका
रियो
##ense
धनराशि
##यलर
रचनातमक
गरथो
मिकस
उलटी
वोटो
लडी
मिमी
##stem
##वियो
झासी
##मटिक
सोलर
पलिसकरमियो
वाशिगटन
गोला
कशवाहा
##एगी
घमा
##ject
##तोष
वान
##नामी
मौलाना
कटी
तमस
सटज
हीर
बनग
सरग
एटरटनमट
पारटिया
पनम
लियो
##सरण
सवारी
market
मजबान
मरादाबाद
चमपियन
##way
कशव
भोल
कारयकारिणी
num
सदसयीय
##ular
गरजर
बराच
वयरथ
तान
वरणित
आच
चढाव
पासवान
सगराम
वगरह
##षो
परवोततर
##सटन
नीरव
चॉ
विपणन
##मरथ
परताड
बनायी
फलसवरप
कमिशनर
पीपल
##गाम
खासा
##job
सरवपर
परतिसपरधा
if
गिफट
सगर
हरीश
गराउड
इसपर
बदली
एट
समापति
निरसत
##जिया
चौडा
बोलना
##यिक
सता
रीड
##बाक
blogg
हलप
august
##ollow
go
सीमाओ
बीपी
रगीन
तरल
राख
उपकषा
बाबत
अततः
मगापिकसल
मरजी
एलान
तालिब
उचचारण
##कषको
भरण
समरपण
हकटयर
बचाओ
फरा
हासय
सटडट
परयो
रपी
##हड
रोमाचक
वसधरा
अमजन
##िदरा
जहरी
अबडकर
कलपति
टबलट
सथगित
उपगरह
एपपल
कलकशन
जनर
सनातन
अनियमित
int
open
रदर
इनटरनट
सील
परिभाषित
att
##डडी
गहमतरी
##14
आवटित
चाइ
मनाई
रहीम
अवय
चनौतियो
निबध
सटन
महामतरी
out
कलशियम
डम
जमस
सिगल
हफ
a¥
दरसत
नाबाद
बोस
air
##ati
##per
पचायतो
दमन
नौकरियो
चपपी
##ितरी
बौदधिक
भती
##la
वरीय
software
रिशतदारो
बललबाजो
बचाया
तसकरी
दबारा
option
जनन
मकाम
medindia
tips
घाव
परसपर
एमएस
##yal
##गाबाद
##ददी
गरभाव
##रथ
cour
##15
सगीतकार
grou
कगना
षडय
##खास
दीवाली
##साइटी
हीरा
परदरशनी
##शवरी
महासभा
##झी
यान
परसननता
vis
##सरत
कवालिटी
##25
परिशरम
वनय
इराक
कवियो
बदलकर
##तीरण
log
nov
##abar
हटाया
##थल
##दायिक
बराउजर
सटराइ
असमरथ
रामपर
सहकारी
बॉय
समारक
योगा
बव
कलाम
बलि
सोसाइटी
##किम
पहाडो
पटर
हडल
बढात
दय
अफसोस
अलगाव
परभा
सधि
##जस
सगठित
##पिता
power
##टट
विवश
धरमो
##मिशन
पयारी
अवश
परोसस
यम
सलाम
मनतर
परोडय
जगली
हता
नौसना
master
नारबाजी
सथानातरित
##iews
शिलप
##कीर
##aph
असवी
##mary
कारटन
##शॉट
सबदध
key
बलॉगर
आमदनी
अनी
अधरी
##पिन
##af
धमक
सरदियो
सटप
##नतर
##ble
appl
इनाम
##लोकन
##परशन
##साद
##कलट
list
पकडकर
घोर
हाश
लय
##ild
तद
##जिन
टिका
अतयनत
##वारथ
उपदश
gam
समबो
गगरप
image
##वसी
पादकोण
जलान
socal
system
बिनद
##आधारी
पॉपलर
##कीपर
af
नाई
आयरन
दिलाई
सीतार
internet
फाई
१६
सतलित
गरभावसथा
दकानदार
फलिपकारट
बाला
##oss
bro
छिल
inextlive
बरत
भरकर
सकलन
दयाल
सपादन
छोडना
आइस
##कतता
back
##धरम
खस
करवाना
ऐपस
उपरात
नॉन
माइकरोस
दविआधारी
उपदर
##तनतर
आईफोन
उडी
सफलतापरवक
मफ
बीती
लघकथा
##duc
गणततर
छी
इनलो
htm
सरवपरथम
गजब
##फोड
चोरो
##गराम
मरयादा
फोल
पलायन
शिरकत
##दवाज
नरक
##ोली
मसकान
समभव
##पकषीय
कासटबल
दरस
मिथन
वरजन
बलस
##सटाइल
जार
मिसर
##ts
शाहजहा
अनभति
चाहा
अवसरो
पशाब
सीआई
जिया
खणड
नजारा
शहा
बदलना
cri
##दधा
नगा
जीती
##माल
गोविद
लोहा
अनको
परोससर
अखतर
mat
पटट
कारा
कयर
बलिदान
चटट
सीबीएस
##ther
खाकर
सौरभ
तपसया
फासट
पावन
नितय
टोट
##वीएम
परीति
काफरस
शकरिया
दवन
उनपर
बदनाम
आभषण
##वजञान
वात
सामदायिक
जनहित
आरकषित
700
रोमन
##ाजीपर
चतरवदी
महासागर
ram
पतली
एकीकत
##ानन
make
रसिपी
##psc
भागलपर
चितरो
बाहबली
मानती
परवि
##ौप
कासय
सचिवालय
##ॉफट
धमर
feature
hary
सरटिफ
अउर
कीरति
काटकर
##एसी
##णो
इतर
पनन
भावक
लॉस
सरकल
red
नकद
sim
हावी
cop
फनस
महतो
##राहट
परपरागत
जकशन
##adi
सापता
घटनाकरम
साकार
##akh
मिशरित
कपो
108
फसटिवल
बयटी
##रय
लफट
बलाग
##परद
माथ
##anch
डिपलोमा
अरज
##फाई
##ावन
##दवीप
गमभीर
पलग
गोड
चाची
अनसरण
सयोजन
सियासत
सकशन
##16
तादाद
##कपा
बीबी
पजारी
गहार
गोरा
इशक
sak
दहात
##कटस
१४
##िनो
##कासट
महानिदशक
##धीय
stud
सखती
इटल
दीवारो
ईसट
चिडिया
उपाधि
अशभ
कचल
बाधित
टकरा
परशिकषित
photos
मीणा
जीरो
bu
धनी
कशमीरी
बीबीसी
##vem
ek
हलो
विधवा
गदबाजो
सकषिपत
निभाया
जानबझ
वहाटसएप
सटरीट
इलाका
पलयर
हडडी
##निक
##षटिक
पकका
मरगा
sl
एपिस
छोर
भली
मानको
कटा
बसन
परगतिशील
##ओएस
पलन
पलीज
rating
अतल
आईआईटी
car
adm
एयरटल
डिमा
चिटठी
पलिसकरमी
रडी
##und
उपलबधता
ईयर
बहल
मानस
मोहलल
अभियकत
दिखाता
निकासी
बखबी
अहकार
##ौजी
अरथशासतर
कपतानी
##योरस
¨सह
हमको
##िडा
गायतरी
रई
ऑकसीजन
झझ
दिखी
##सतता
चिदबरम
जौनपर
चदरशखर
कोठ
##वरट
तलाशी
घोल
वयवसथित
ईट
रकन
एशियन
##आईपी
वोटिग
उतारन
पारकिग
सापताहिक
छकक
परोडकटस
परभात
right
##ush
टव
जीवो
परदाता
##जिट
##पिया
बकरी
शिलपा
समकालीन
दिखाना
फाइलो
##टीय
##abad
##चड
ur
कचरा
पतरिकाओ
खरीदना
पकषियो
निरवाचित
चाहग
##vember
primary
html
नजरअ
life
तोडकर
शिफट
सगत
cm
अरबी
डोर
##परतिनि
अकली
विशवसनीय
##राइट
जजो
एवम
जमीनी
सततार
##एफसी
परातः
अभिल
राघ
pic
टकसी
##काउ
पीडी
बदलती
नमी
pun
पराजित
डवलपमट
##जसी
any
विराज
समीर
चतरथी
november
विशराम
सिलडर
षडयतर
शब
करवाए
पना
झडा
१७
फोरम
गरनथ
शया
आफिस
सधर
एडव
भाष
परीकष
बलल
हतयाकाड
मडम
अवॉरड
तालमल
सयतर
मदी
इणड
ठा
##हाड
सधीर
लगग
180
एपिसोड
कपस
वदना
परोफशनल
अतराल
सनयास
जिजञ
पीपी
jio
घटक
##शदा
काश
अनिशचित
टोल
डालना
शिवाजी
इरफान
निकलती
सिधिया
लणड
work
झारखणड
पीरिय
1947
उसपर
##ahi
##चरी
भवनशवर
कतरिम
परिचालन
साठ
##लोत
ततवा
आइट
##गीत
टार
अनल
सबजिया
follow
##सथी
सीए
पनीर
gm
अफरीकी
pass
##पपी
भारदवाज
##att
##ology
मीठा
haryana
##rit
jobs
जनपरतिनि
समककष
inform
चादर
##ved
aff
वरगी
##ina
हाय
चितरा
यद
जावद
रामलीला
##ोननति
##यग
skreen
सरवोततम
अपराधो
समदायो
रहमान
चिलला
आमन
आकरामक
परतियोगी
नजदीकी
che
कठिनाई
आमर
मरली
##चरया
shar
मनात
मसकर
सटशनो
कपल
##ौत
तरण
खशिया
सविध
##भीत
कनदरो
गलरी
सनदश
खया
##फन
##elf
महतवाका
डाइट
बिगा
महागठ
धमरपान
मडा
वचारिक
##urn
दमदार
डिमाड
कटट
##विया
पराचारय
लबित
##षटीकरण
अमान
अनभवो
inf
अविशवास
##साथी
##वह
##शद
सीबी
##योदय
लटका
कोलसटर
मशीनो
ret
चलगी
बाटन
लिट
पपप
रचनाए
आवदक
शखर
ist
मशा
उजजवल
बचचियो
मढ
##li
##annel
काननो
mov
##गरड
##aut
नचर
समझकर
step
मसलिमो
काटा
##यलट
sol
##ौक
ववाहिक
घमत
##घरो
##वासीय
रझान
बवाल
vi
जखमी
सिलवर
परोहित
भावनातमक
पीला
उछाल
नजरअदाज
मालिको
##िष
tags
bol
sur
##ौनी
समभावना
वदो
##मोल
विलय
ev
तण
##शट
##िकाए
जीवनसाथी
पलल
परिष
पछत
sab
पीसकर
मनय
कमिकल
ताम
मोहबबत
समीकरण
##परो
महागठबधन
know
जनमा
कानो
##लत
पढान
आइडिया
##मखी
भान
परिकर
डिटल
सपीकर
निरदोष
##मिटन
डायरकट
##शीट
नतिकता
##ियरस
छिड
##तस
सथिरता
smart
नीलामी
##टाला
गरिमा
नोबल
तनाती
##िशियल
सरटिफिकट
वीरदर
दिखाकर
मोहित
channel
##मणि
##जिग
मणिपर
खीर
रियर
घटान
जगननाथ
फटी
हसतमथन
बगम
दोषियो
नाजक
बाधय
परतिवरष
हिज
वयतीत
बाली
portal
काच
धरन
हमलावर
आवि
##सघ
नतीजो
मासपशियो
अदव
ममो
पीटा
##लवा
जायजा
##लाज
समिथ
रोट
गाडिया
सलगन
##बोध
##aper
##ices
##सतानी
कनह
अनपम
पाएगी
उततीरण
##थाम
ऑपरटिग
आवासीय
##रोज
गिरि
चौटाला
##ki
year
बहिषकार
##किर
1980
पसीना
टकडा
mi
बडमिटन
परभार
सभावनाए
यगल
दरसचार
जाऊ
डॉन
पालत
ut
polit
मॉल
##माबाद
नवरातरि
गाठ
बजरगो
जएनय
पदरह
माइकल
एडमिशन
अरणाचल
दगो
##ालड
सीबीएसई
कलोरी
कतई
##सवाल
पाटी
मसला
आति
##कशी
##तवय
सकसना
##एनए
अमबडकर
मसाल
999
एआई
चोदन
धरव
परदशो
कोविद
लगाव
गडक
##टिन
निकलकर
गरगराम
##खडा
परतिभागियो
have
##ाइलड
##uj
परीमियर
यथा
spec
sec
उरजा
सीकर
##परसाद
here
पाचवी
दिखत
inv
fin
अडा
ओपी
विवकानद
इरादा
##दरशिता
आपातकाल
##षटमी
अरजी
सपरी
शॉरट
##ासट
pc
सबर
सततारढ
परतिबदधता
हालिया
चलाना
शासतरीय
##da
##षप
जातीय
##नाद
##पीए
recipe
निरदलीय
छापा
रिपोरटर
डिपारटमट
ter
फकन
पौधा
धआ
##90
##िओ
सहारनपर
full
परहार
उतरी
थीम
नताजी
चदा
##बग
मयामार
कपास
बरोजगार
गधा
भविषयवाणी
अभियो
अवसाद
1996
हरदय
सिकयोरिटी
पथक
##ामी
like
बटिया
trans
परवास
install
बगी
सनातको
na
सया
हाजिर
परिकरमा
##रायल
##खाड
गोसवामी
एनाल
विजयी
पिच
बोनस
पहचता
बढाता
असथायी
##वजञानिक
##बलम
कसटम
विकार
##फयर
सरकषाबलो
नवजात
सईद
##ton
निदान
विजञपति
number
her
##यय
##शक
करमशः
रपर
##फफ
परवज
बकटीरिया
आसाराम
blow
application
यर
कवी
इनसान
दारशन
टराई
कमला
वॉर
अनार
महानगर
mus
गहलोत
##word
धरो
aaj
नाद
girl
यवराज
##वली
##राइल
अनदखी
कदी
##विरो
##किया
अदवितीय
बहार
खासियत
ईवीएम
सरवस
##ीत
करमो
दहशत
अपनो
उधार
पततियो
फौर
पसतकालय
कॉरपोरशन
contin
फज
गणपति
निरणायक
##कटिव
कषतिगरसत
कतता
जतात
परख
रोकथाम
डिलीवरी
pa
कोण
दलील
पडाव
आट
पीजी
भाल
आयाम
शीत
पारस
चोटी
सीआरपी
बढना
धनिया
##तसव
लोकार
आईपीएस
बली
##बाला
लटा
name
आरपी
वशी
एलो
यादगार
महोदय
कशती
१३
सतयापन
एसएमएस
##खयान
नमना
नौकरिया
उठाय
##ाईल
धाराओ
मबार
समचित
2020
##gar
हतयार
##ange
##तरस
सहल
##बतती
copy
खम
साग
सवामित
घटित
विदयमान
फिलटर
अधयातम
उततरपरदश
एडल
शीतल
अशविन
परमचद
पतजलि
चितरण
तोडा
test
##13
परहज
सितारो
विकलाग
##ोगो
तमा
kaise
खाडी
अमी
परिदशय
कारन
शीश
ओल
यमन
परकष
अनतिम
सिकक
सिगनल
वरन
कालोनी
##मिकस
सतरक
capt
राजाओ
कमब
शटटी
##ठिया
सहयोगियो
टम
परन
रोमास
##िहार
अधिकत
##पाक
पारथ
फिन
सीखना
३०
उजाला
dist
शासित
गसट
##वयापी
किराय
अवा
करॉस
##coin
शिकायतो
उपयोगिता
##शयाम
विनमर
ततपर
##नाग
उठत
उतपादक
पवाइट
आकति
दवदर
सभागार
फो
##इजशन
महनदर
सबोधन
मकका
कराकर
कटनी
तारो
##ti
बगाली
समपतति
चनदरमा
आभा
produ
bihar
धोन
##ीयता
मकसिको
ईसी
चब
चौका
पठान
##ॉलट
आबडकर
गानो
लकषणो
बागी
सनीता
ईडी
##नावश
def
परिसिपल
सवामितव
##भदर
सफी
कदा
निकालना
बढाए
लॉग
शायर
२५
लद
मगन
मोटापा
टरिफ
उपायकत
तीवरता
अपार
टरमप
१९९
सीएन
चाहन
सलामी
बलद
छानबीन
nav
माओवादी
आरक
##ateg
मगजीन
##खासत
बठत
110
हडकप
नसल
कारयानवयन
##ईटी
मकक
आशतोष
हलीक
परयाग
धमधाम
नजरो
उपलबधियो
बराहमणो
एसबीआई
सरकषक
नवन
उदास
शाद
हवन
उबर
उतथान
आयषमान
कहर
ip
सथाई
मिलाए
रामनाथ
गतिविधिया
function
अमरिकन
ओह
##aka
सगाई
blowjob
##यशन
परवासी
वकालत
##23
##ital
शरवण
tool
दसतक
खौफ
दणड
बान
पॉवर
सपरीमो
किसक
##ॉफ
kum
##थरो
##ype
एकद
निवासियो
अहिसा
गनना
अपकषाकत
इराद
आकाकषा
पटिया
डायरी
कीमती
जनसभा
बयानो
थानाधयकष
परशानिया
मीर
मनर
सिखाया
ओमपरकाश
ta
अधयापको
बिठ
तणमल
किचन
परॉपरटी
यशवत
##work
wordpress
करर
लॉक
हिदतव
वाणिजयिक
शरमिको
इसलामाबाद
विमानो
##ोष
जागत
##ोरिया
नसख
कवाय
परतिकल
हकम
other
##मनिरपकष
188
सटडी
##खाना
लोकारपण
सवायत
खजली
विखयात
बहाना
परमाणपतर
शाका
social
साधक
information
ढी
कलल
##पलकस
##चयोर
गजरन
अबदलला
अबबास
##ानतर
दषपर
आजमा
फका
ममोरी
डिजाइनर
modi
अमावस
बताकर
नहान
दयान
फोटोज
##नाई
परजन
घाटा
रहल
तरटि
##gh
आटा
जपी
अरविनद
उठाई
यादो
##ाहट
लिपि
बटवार
1992
अभिभावको
##लीट
शरणियो
आरटीआई
लोकपाल
5000
कदियो
करय
एकागर
अमरनाथ
सविच
अदाल
गडढ
##ॉनग
tit
##ivers
sar
धरमनिरपकष
curr
##िगर
जानलवा
कचचा
##राषटरपति
फाल
##ोरम
रमजान
रसतरा
शिकषाम
वरचसव
झडी
आशवसत
अरोडा
असाधारण
बाटा
तहसीलदार
तालिबान
वामपथी
##वसायी
सीएस
गडा
##वाजो
रवया
सान
shiksha
फटज
सहान
तरनत
##पती
सवानिवतत
##गपत
crime
खदाई
दशहरा
##शीद
खिलौन
अराज
फलाई
अनचित
छोडी
गायन
love
##diyo
मलभत
##ऐप
बटो
बढोततरी
##ॉरडर
गडगाव
हारन
##गाडी
अवर
लिव
सटराइक
कततो
खिस
पिकचर
##सकल
पीएन
सलझान
औसतन
##माणड
औजार
बलराम
पनना
##सटल
फौरन
पया
ताकतवर
##भवन
##oot
लाइबर
पायग
परकरियाओ
सोलह
आजीवन
लोकशन
##ॉइन
इशयोरस
लार
रहसयम
निकलना
##tak
वायसना
झठी
सभय
सटरीम
##ालिया
लमबा
जठ
##70
##िरदश
झर
समभ
फमस
उपराषटरपति
गढवाल
घोष
वयजन
बधक
काफ
मजह
compan
इमरजसी
चलज
बरखासत
मतो
सवतनतर
रिए
लज
फारसी
नबी
डाट
1991
बचाए
निखार
रसटोरट
हाग
##ator
दाखिला
शवत
rik
आईजी
तिबबत
शोधकरताओ
कोलब
##जातीय
लडाक
पीली
परशसको
पहनकर
एकसस
पसीन
वोटर
सवाददाताओ
माधव
1993
##शिद
चास
मीट
पटाख
करियानवयन
कहगा
परसव
दतता
जहन
विदाई
##बादी
##पला
पिला
शॉ
एमए
real
लगाम
माली
कवायद
900
अममा
बीएसई
खोलकर
एनजीओ
अभिनव
कनदरित
##रताओ
सपिन
अनमो
जलो
यक
##21
##दरद
group
माइकरोसॉफट
रिकशा
मारति
जडो
sept
##नदयाल
##मनाक
साकषय
ढाल
ताजमहल
किगस
##riya
परतग
आरज
शमार
##ानयास
नीत
विरोधियो
##भान
##गड
परतिनिध
##ओवर
कमाडर
khabar
##यतन
##करमा
इसाफ
धनतरस
call
एगरी
show
करणा
कहावत
पयारा
सपॉट
धरमशाला
रियासत
विदा
##ाधीन
एनएच
नॉरथ
रससी
ce
##फोरस
दिनभर
##pr
शरमनाक
आगाज
rikord
डालर
टकराव
अकश
घणा
##asthan
##पादन
##हाली
किनन
##pa
फाड
जातको
जितदर
इसपात
सकरिपट
गाग
परासगिक
गरटर
national
करोग
हसियत
नवाब
भौग
तयागी
सशसतर
शिलानयास
दविपकषीय
लची
निसतार
चढकर
लोहिया
##होतरा
चहल
li
सभावनाओ
टाउन
##ize
educ
##ारम
दतावास
दीनदयाल
##ations
##माता
ऑसटरलियाई
गिना
##िएटर
एकसपरट
पलानिग
##top
ममकिन
रकतचाप
समट
गडकरी
अनतरराषटरीय
भिगो
आइटम
रणनीतिक
काउटर
पीक
उददश
नारद
कबी
##anj
साईट
करमाक
##बडा
##ute
पचम
दहन
उननाव
थल
question
इमो
हरक
##नायक
##aps
गजराती
रिवय
तबी
##करन
मतको
##icket
इकाइयो
##ौला
##oney
बदरी
इनपट
भलाई
टकडो
गलकसी
पराथमिकी
रबी
ताऊ
लीवर
वकीलो
कलकतता
सरकिट
mod
करिसमस
आपरतिकरताओ
विवि
छः
##ऊद
##हमी
तबा
इटरफस
el
टरायल
निषठा
कटो
बगा
विग
वसतत
##ोशी
गोबर
1997
बसल
##old
##रखा
##55
मबर
बिटक
अवलोकन
डॉक
जोगी
view
आदान
##wood
लडड
आविषकार
डीजीपी
धवसत
##चनो
बनवाया
नाका
फीफा
आतमस
परायो
अरधशत
इजरायल
मबारक
रोकना
पतल
create
आजतक
भसाली
किट
##उत
ठडी
पॉप
##ution
पजय
लडत
बलाकर
डली
बारात
पहचना
सभल
पदमावती
परजाति
बढाई
189
वसतए
योदधा
दरदनाक
bar
एमडी
पायदान
##ites
दशभकति
##ral
##ines
##जरलड
polic
चिनता
शिवपरी
दिवयाग
##elop
फिरोज
डिलीट
रचा
सभाला
जीडीपी
3000
सवीड
दिनचरया
निवशक
भौगोलिक
भगा
##टीना
पोत
##सथिति
धवज
काह
लच
##ानय
उपमख
एमसी
1500
सपादित
दरिया
##जीसी
जाहन
हडडियो
कारयालयो
350
पटिग
रमा
##गरस
लाइक
गडबड
##सग
खरचा
लाद
##ission
बदधिमान
सहर
stories
नगन
##दरोही
##पोल
शरगार
जटान
मजी
नाशता
pur
दवाए
टराज
तततव
इनवसट
वयसक
बीर
##rect
अनमोल
अबतक
तारक
भयावह
रिलशनशिप
टॉयलट
##scri
गोदाम
सोचकर
टब
सिदधि
विमल
बजान
बचनी
priv
सरया
पॉइट
##सथानी
परदरशनकारियो
अकर
##rop
जयत
बादा
सरविसज
आशय
हारडवयर
september
राषटरवाद
khan
एनी
अपलाई
rajasthan
बिच
##ौना
रविशकर
हलीकॉपटर
डराइविग
date
##ful
कोशिशो
तफ
चॉकलट
कदमो
##ons
##ारण
##int
पखता
बिख
police
##षठान
जाहनवी
दशवासियो
1984
pers
##तीन
टरवल
##char
महाप
पकट
##vert
##mb
बदब
तरास
सयद
अदयतन
बलाई
help
##ition
er
गाजीपर
##ose
views
छाव
पिया
सरोज
मोहलला
कलह
has
एणड
जालधर
##ga
मलहोतरा
जीरा
##नट
जद
वयाखयान
सिदधानत
बाइबल
दकषता
val
सविट
एडमिट
नामित
राइफल
काजल
नान
माधरी
##war
एपप
july
सोव
गाधीजी
##धयापक
ms
##उल
content
करिशमा
लगना
उगलियो
निभात
परणाम
सभवतः
नदिया
नवरातर
सननी
गिरकर
कसल
पातरता
सपरह
विराजमान
##दित
निःशलक
तमको
सीज
bet
##ॉरिटी
शिद
##ोवा
लीडर
code
एमचयोर
जलदबाजी
##ty
हौसला
130
##ool
जवाहरलाल
##णडा
मसाज
जिनना
30000
परजापति
##िलस
##ification
##ister
बवक
पीयष
सहानभति
लखी
sal
vers
फरमान
परानत
##tet
बजकर
धरमदर
विराम
अमावसया
सिककिम
जाधव
अखड
कोरियाई
रोहत
कालपन
##omi
गात
start
##लिन
##गिर
बरोकर
डमोकर
फय
हब
##मात
कारी
दारशनिक
कात
भई
अभिनन
शिया
पाबदी
गायो
भावो
बिलियन
जडीएस
विचितर
भावी
साधनो
कोयल
bitcoin
तबीयत
##ागार
असव
टोपी
भिख
अडडा
अलवर
नयायपालिका
होड
बनवान
सलीम
आशरय
राजसथानी
डीएसपी
##500
कचर
##cess
एसएस
##कील
सघन
ढाचा
तडक
चशमा
बडो
कलिफ
बनवा
सथानातरण
##com
our
थाईलड
##reat
एनटी
कीड
सपतर
सरप
gmail
##ober
सपरहिट
शातिपरण
status
एनडीटीवी
समच
बलजियम
सटिगस
##नातमक
पापो
निरमला
लखिका
##पोज
जमाना
दखरख
एमएल
चालीस
परगनसी
##a¤°
गरोथ
##lock
बोलता
सिघ
डराई
##यदध
mil
घटकर
सजग
गणराजय
सीआरपीएफ
परफॉरमस
बगलोर
मघालय
विशषताओ
बदरगाह
##हाटी
विजञापनो
फकशन
##यातमक
छटटियो
मौसी
ja
##मकत
dig
खदरा
पछना
तोहफा
सपिनर
गोलडन
परोडयसर
दओ
##vel
son
ककर
आजमगढ
##नावशयक
तिरगा
tem
चकान
परवानमान
धरा
##खिक
आशचरयजनक
बकस
एलरजी
गनन
डरामा
##let
##सिदध
मगावाट
##ससी
बआ
गलतिया
##मानस
सरोतो
परड
छटटिया
डिसकाउट
शासको
विशवनाथ
जॉरज
खशियो
पलो
कारोबारियो
सचीबदध
रदरा
मरतिया
रचनाकार
##णडर
शलोक
ssc
हिदायत
राजदत
बहोश
तिहाई
समाधि
##agar
ढोल
wom
develop
फाइनस
मफती
1995
शवता
continue
##िसन
अनावशयक
सलिबर
हिना
निमतरण
##ौडा
रोत
##ux
विशषताए
वयाकरण
##gr
rah
बाहय
##डीसी
अकाल
1994
गिराया
रोडवज
परतिपकष
bharat
चितरकट
पतथरो
##रखाव
watch
पाश
सकरियता
जडजा
महक
महिदरा
एडवास
मनरगा
##ोरनिया
रवीदर
निज
##लाइस
गब
सवदशी
इजकशन
तोमर
झठा
##मनतरी
दसवी
इकबाल
पचाग
##ाइश
nic
सटारस
मधश
तबाही
##चअल
रखरखाव
गोपनीयता
ताइ
मनोवजञानिक
वरदी
october
उपमखयमतरी
शहीदो
मानयताओ
अधा
घटिया
gl
भव
दषित
rem
धधा
उडीसा
कनहया
वयवसायी
cor
most
##jab
##नीयता
दौलत
रोहिग
महाजन
पालक
पदमावत
चादनी
kam
##ारजन
##वरातरि
चिकितसालय
लध
तलब
ban
अभिभावक
पहनी
लोट
रोष
##75
हटाकर
बॉरडर
साबन
जिसपर
current
सरनदर
##नड
समबोधित
भरना
कषम
रिवाज
कलिप
tar
भडारण
वनसपति
##ror
128
##shot
लबर
बबल
टिपपणिया
##षटा
ال
##भय
माज
मशी
##आरआई
अधकार
वभव
सटो
##ितरो
खामिया
140
sep
##lywood
कारावास
बरसो
बडौदा
note
सचत
जायसवाल
happ
जवानी
भगवा
पॉली
खदकशी
कोक
अलट
str
पारदरशी
govern
चज
आकस
vo
छाल
har
मटल
##जोत
##विदर
सोवियत
सिमट
टकसट
सजजन
परसस
दावो
##नमट
बरिग
##दिया
एएस
कारमिक
##पदा
परावधानो
जवाइन
गाजर
सविटजरलड
डिफस
शयामला
अलमो
एडलट
घटनो
इकल
जीप
prof
##28
मौखिक
खरीदत
रोजमर
शवास
कटगरी
नगरपालिका
परणब
##इश
फटकार
electric
जायज
##पियो
##वयो
कदद
basic
गलतियो
छडा
थाली
हदी
आपततिजनक
product
सीमट
फजाबाद
##lic
##ओसी
आसार
रिहाई
हमा
##भित
सिप
बहती
##चछा
रपयो
पारा
##her
जाऊगा
##ca
पारदरशिता
सहवाग
महबबा
विशवकरमा
भाप
import
फॉरमट
##परय
खजान
गायिका
खाय
मिटान
porn
शादीशदा
डोमन
निषकरिय
महमद
जवाबद
##वीजन
ननद
सकरीनशॉट
खलास
इसतीफ
डयरी
विचल
जीवनशली
माइक
ho
दखद
कमलनाथ
##काशी
##33
हमत
स०
दवगन
टकसास
मगनी
नरसिग
रोहिगया
##पय
धरोहर
##मियो
खीचन
जनमाषटमी
छआ
##ासर
असवीकार
लिफट
##सकता
सलभ
परकटिस
गरट
सनो
##ays
##ोनिक
बाधकर
सचक
जीवत
अलमोडा
रजनीकात
टटी
##गिल
पथरी
आयगा
पककी
सकतो
मॉन
धकक
टलीफोन
उददशयो
मायक
शकराचारय
आयरलड
राकषस
सनप
असफलता
रजा
परमियो
हिरण
##ource
subscri
##बि
असथिर
कषतरफल
रकी
ताड
इशार
update
पटियाला
परॉबलम
##oor
##िलिटी
##ative
उपकरम
अपकषित
यसफ
परिकल
बलिया
धनबाद
नागरिकता
लाता
सौनदर
पतता
चड
loc
##uch
दावदार
छिपी
दिश
मलरिया
##lease
##माला
##विच
फतहपर
भीख
डिबब
##शासतरी
एडिटर
सविधाजनक
बराउन
कगार
kahani
##िकरण
नजरिया
##kia
राजभाषा
नामी
मीठ
##मीकि
##टरिक
वाट
##गोपाल
टायर
पहचती
वलय
##कारिता
##acy
plus
खराक
मिसटर
बचकर
वकता
यएसबी
अरबो
images
परजनन
रोजमररा
मारगो
दरभ
वशचिक
पोशाक
lang
महाल
समझदार
हनर
##फोरड
भजकर
##umb
उततजित
जिहा
टडर
##षको
बितान
##vid
वमन
##ins
पढता
##ments
अलविदा
आनन
कराता
परज
सियान
नानी
ins
छोडत
prote
यकी
##कषमी
कालपनिक
##एशिया
##26
##ails
कमबखत
##ातल
##उज
kend
हफतो
राजनताओ
##ोकट
राषटरवादी
बदलता
शकतिया
##pro
wwe
अलपसखयको
सतरकता
##ढिया
##फिट
दलह
चमकदार
##tr
##वरग
बीजिग
चतरथ
परचलन
बरथड
प०
राई
men
##भषण
हडसट
कथाओ
बगसराय
##णडी
ऑड
रसम
टारगट
मरो
अनकलित
मगध
qual
सिकका
पाचो
##ढr
सनातकोततर
दगल
बदाय
मारत
अमठी
सकरटरी
पराइस
दाए
##रियो
##िवत
support
गियर
सिहा
आपरशन
अठ
चनी
bs
मनमानी
उदासीन
160
कोलसटरॉल
मीठी
थप
निरनतर
tri
vee
##ालयो
सावर
हॉसटल
गरमा
मरना
मपर
विषा
डिसटर
थरम
##हआ
विनिरमाण
dep
रॉक
##बरो
kumar
अजन
sat
##डरन
चकिग
##हाइडर
कवरज
वाछित
गोग
अवशष
सजावट
निजाम
पौषटिक
लटन
अनपालन
ver
नियत
वॉटर
इसानो
ऑपरटर
ir
##हारा
दरार
हपपी
निसतारण
टरीट
माझी
नीलम
आपरतिकरता
पसनद
टासक
##रमट
##right
डक
ढरो
इडसटरीज
ससाइड
भगवती
over
कराती
nokia
नोकिया
चबा
फसी
१९८
लकषयो
चटकी
office
डिपरशन
उपभोग
##वधान
सोरस
वकतवय
सरजिकल
कषतरिय
राजकमारी
तातपरय
भावारथ
अधयादश
दरविड
पसजर
डारक
सजाया
टीबी
##दाद
वासियो
एग
दाऊद
अनोखा
लशकर
सिददी
अननादर
##xy
amaz
##काग
हिच
1989
गागली
लोको
उततजना
##raph
पदोननति
भजना
बीएच
गवाहाटी
डिनर
##लाइ
सपल
गवाही
गिरद
घसा
रखनी
कलचर
related
ve
आदशो
दरदरशन
मापद
एडस
तोडफोड
hum
election
समझी
बतल
राशियो
परसकत
कणड
ओवरो
पपी
##शिषट
१९७
भतता
परशसक
बरताव
मिनटो
vidyal
##ience
##ited
गलजार
editor
camera
रिपबल
झोक
लाइबररी
##aily
सावितरी
पोज
बाहो
परचारक
ast
##कायदा
बडरम
बिटकॉइन
madh
##ोनॉ
उगा
पराणियो
##करमित
अलह
रना
chud
डिल
जानकारियो
##ोलनो
मारना
1950
सतयन
लिन
सलो
##amil
उग
विसरजन
univers
तयोहारो
मखयतः
जनाब
थरर
सराहनीय
##मोह
माउट
##yan
मतगणना
अभयार
झका
आलोचक
##ालियो
आईएएनएस
ठो
upay
कननौज
##िगन
रगड
उमड
गोलियो
##ada
march
टरोल
##एनएल
जिजञासा
char
जआ
टोन
##लिस
##पकट
##ारियो
इरद
कागजात
engine
फररखा
परवाचल
1971
गीतकार
was
उदधार
गजरना
रोमाच
बाबरी
186
लगाता
मागत
विकटकीपर
शिप
सतम
साकषरता
##ny
सामरथय
gst
नवाजा
##िटरी
गगन
दिखायी
##डोम
छठी
बाडमर
si
समाजसवी
नोड
reviewed
चौब
वायदा
mag
आयग
उममीदो
##पसद
शिला
##ओमी
बीजो
जानकारो
रखगा
अकाली
महाक
घरवालो
अनज
10000
टि
वशया
पलक
जाइए
mac
कढ
विजन
veediyo
बलात
##ond
store
दिवगत
गालिया
टॉस
##आरएस
धरमगर
धडकन
##yle
अपनाए
टीजर
##षणता
लौटत
कवीन
छलाग
##हाय
कलिफोरनिया
mb
गोरी
जलम
दिललीः
##चो
हजारी
##कसाइड
friends
##ानवित
मथी
pet
चालको
##वला
##सतरीय
मलब
धारावाहिक
इणडिया
वडिग
सीक
पीटर
बरग
बहता
बरिगड
##वीपी
परताडित
##हिया
मधपरा
औरगाबाद
##परताप
परयाय
शारदा
updated
##फली
गोवरधन
इसटॉल
वरड
परसन
##तोड
kya
बाकि
चोदा
अननादरमक
उध
पिछला
अहमियत
आईएम
##योगय
चढन
टरासपोरट
दामाद
अधिवशन
परिपरण
मोबाईल
साधवी
आगनबाडी
पथराव
करनवाल
court
फटा
एनआई
policy
##ागो
हिसार
जररतम
##गजब
नासा
select
निशलक
बहाली
अगवा
एजडा
किससा
पीवी
मिततल
दरपण
जमात
परयव
proble
कआ
यहदी
परससकरण
road
फररखाबाद
भावनाए
चिपक
जोडना
##राहा
##achar
डबिट
बरश
निरो
चाण
ऋतिक
विधिवत
जिममा
साखय
##िदव
कविटल
जमशद
समायोजित
मनाफ
eff
##09
##वशन
ततवावधान
##ारत
शाखाओ
डाकटरो
साख
##कतिकरण
##गव
##ईसी
मची
daily
सपषटीकरण
##rika
पहाडियो
इमारतो
pop
नाटय
शरीकात
सतरिया
punjab
##गगा
##तीकरण
##ाइया
##ency
चाइना
##39
##भन
बजरगी
ठोक
बरहमाणड
vidyalaya
दीकषा
अपरत
kendriya
ya
नवल
छातरावास
कमलश
आईएसआई
publish
बाबल
पीएस
##जड
भाषाए
कतय
nar
कसबा
ओक
##ॉयस
##हहहह
मॉर
reading
तालिका
परधानाचारय
दशयो
किशोरो
box
पीकर
political
2022
##फीलड
इलकटरॉनिकस
माप
पराज
दाढी
##पाट
##गाठ
इनत
एकाउट
पीटीआई
पिए
हरियाली
तबाह
डीएनए
चशम
रिचारज
एनकाउ
breaking
समरथित
लखो
पाइए
##ese
थिएटर
पनरवास
##मोचन
राजनीतिजञ
हसतियो
##वाहक
फरनी
पिकसल
परशराम
निहार
सटलाइट
##सौर
पनरन
जरी
तबादला
person
##पज
मशक
मसक
जानबझकर
##शम
रकावट
सिवा
१००
अधविशवास
सगो
जोरो
कनफ
##मिग
##जीविका
नाली
बलान
आभास
विकरता
don
वष
चालान
##44
सचनाए
मकल
किफ
##डली
हललो
राठौड
गरभा
जई
दरशाया
लधियाना
मचछर
जलाकर
हकमत
वफ
##सटी
पीएचडी
##ji
जली
##महा
भाड
pra
समितियो
परोटोक
पतिन
डरत
featured
परतिनिधिमडल
##ारिया
##िनशन
##aksh
बोलती
अजञान
टरमिनल
##साथ
चमपियनशिप
औरगजब
requ
##वागमन
##ासपद
सवरगीय
सतयागरह
खयाति
पिसटल
शीट
राल
ठगी
सशन
रामचदर
नटवरकिग
##77
पॉलिट
करशी
शका
ऋष
एपीक
##वाती
थिय
पाटिल
सकोच
आकाशवाणी
रकषक
langu
सनानी
नीतिया
चढाई
डॉकयम
text
education
राठौर
##ताज
दरभगा
रवय
mess
महासघ
फडरशन
सरफ
दौडा
टशन
सघीय
हाफिज
रगल
झोप
##als
##फरट
एकसपी
##a¥€
##ोनिया
आकसमिक
मराठा
##agram
महाराणा
फरनीचर
परफकट
##ियट
अपरतयकष
अरधशतक
##जनम
बॉमब
सहाय
कसौ
अथॉरिटी
##amp
सिखान
june
हाइव
##और
##मग
खशख
दाना
१९४
सदध
बरसट
##िकषा
आवागमन
ठप
##हस
##माह
फफडो
##bh
विशषा
विजिट
money
recording
हमीर
राशिद
board
दीवाना
परागण
भटान
paytm
##एमय
दओल
शहादत
पगमबर
रोहतक
bir
categ
##मलय
शीला
गलामी
निकायो
मनोकामना
government
कीट
sign
एकात
गलियो
सकडरी
खलती
##घाती
डालता
अगरसर
hi
##erg
a¤¸
##िनार
लिखता
लमबाई
सोचती
सौनदरय
अपवाद
##ानियो
कडल
बलब
सपरदाय
network
असमान
##oint
दकानदारो
##ism
सबी
साधत
contact
घरा
पिप
चनिदा
धरमा
वियत
एनकाउटर
गदय
हरत
fact
थम
मनीषा
चपपल
नौका
२४
करआन
##कोष
आईबी
dom
खलआम
टटा
वॉटस
मडर
अनव
परकोप
##थिन
लगाती
उडन
निषध
काठमाड
१९६
##uss
games
##ावल
##किशोर
विलास
रपा
आमजन
आजीविका
रामशवर
बलासट
रातो
राजग
तबक
शासनकाल
परदषित
सविदा
शप
मशकिलो
डीपी
##पशचात
care
उतसकता
mins
सवाधीन
फरिज
hist
लबल
परटस
रावल
निराकरण
चौडी
फकटर
पीडीपी
अरजटीना
जही
पननो
तमर
##ियरपपा
थरड
चाणकय
करिए
रखाकित
##िखा
1970
पटकथा
सवीडन
##land
आठवी
नॉ
जिनदा
##बरली
मिजोरम
कटर
पिज
राषटरमडल
इब
गरजएट
ant
मरिट
ep
एसटट
##तराज
पालीवाल
पाटीदार
हाईसकल
फिरा
आयगी
दरोगा
शरादध
तीज
करोम
परजातियो
सिददीकी
कमारसवामी
सचनाओ
##किग
परिकलपना
पारथिव
बजाज
रिटल
##एचओ
खशखबरी
##aba
परवचन
144
महिल
बनावट
##भिमान
##uru
अदरनी
hu
भिज
version
पोटशियम
hal
शवो
शराव
जाव
निपटान
enter
सरयोदय
अमता
##76
##बियन
बीए
परवजो
डोन
गोचर
जडीय
कारपोरट
वाकया
२१
मयचअल
कबडडी
आवला
नौजवानो
cal
इटी
##ाननद
##ावी
##वीकरण
भसम
##ओग
घोडा
रकतदान
गमराह
सिरो
मोटाप
मापन
सतति
बीएसएफ
source
##कोल
टहल
सलम
गानड
शाहजहापर
दरगाह
सभापति
कनकटिविटी
##उददीन
सहभाग
कहो
##ones
पौडी
आरसी
खदान
रिपोरटिग
काबिज
सहजता
डबन
उठती
मरतियो
परतिदवदवी
cons
अनषठान
##हानि
कीटना
सलफ
घिरा
रहाण
अतिथियो
टिकी
करायी
कषमताओ
बीएसपी
पराइम
काउसल
भाटिया
अनभाग
अनगिन
##वरगीय
फिलमकार
##ograph
थानो
डिट
##bc
भगोल
सरलता
कमभ
परचर
डीआई
समझदारी
##धारको
हागकाग
महारानी
जाओग
इसरो
##टावा
schem
पाचवा
हीन
service
वॉक
पीपलस
##मतर
कामक
पतरा
##रोट
सशरी
वग
ओपनिग
who
भील
पिस
निशा
ततपशचात
दरा
लाला
##35
##िकीय
user
##रकषा
रायबरली
फोलडर
शडयल
अतयाधनिक
मिथिला
##mp
पणड
सापकष
##हट
सशकतिकरण
कग
रब
भरपाई
हडडा
spe
जकाम
डार
असीम
बदो
##िमो
एकडमी
##my
सिनमाघरो
तातर
नयो
एमएम
रफी
मानद
अपरण
ऑडिट
आधारभत
ठस
कमियो
रविदर
##soft
फानन
समाह
टावर
अनोखी
उछल
मकखन
गजन
chh
जीवाण
आठव
कौशिक
दोगना
##wa
औषधीय
अधार
सोनाली
##कराइ
कारबो
वदय
##ोदिया
##36
नायिका
भयभीत
तकनीको
भडास
एकागरता
हकदार
guj
चलाकर
bene
लौह
सटाइलिश
adsense
मारशल
धोख
mem
##णवी
पातरो
खानपान
गाथा
patrika
जफर
अशर
उतसरजन
अभिया
पीढियो
करोडपति
चचिया
जरिया
माइन
सिफारिशो
खटटर
##ोला
लोका
शसतर
पचायती
कमाए
conne
जानग
अगठी
फटन
मशककत
ठका
लौग
नाख
अलटरा
##ॉज
##ियग
rail
तरासदी
हलमट
मनोविजञान
दज
कमाड
मिटा
परिसथितिया
रपरखा
डिवीजन
फरचाइ
##िमट
फरासिस
##चिन
डा0
xia
उदयमी
##we
##itt
गणा
खजाना
गोपी
सटअप
नड
बनाएग
company
गनाह
डरग
बरहमाड
परिपर
sbi
##राहम
सकयलर
शौकीन
कचची
मोटरस
##वलथ
also
कपिटल
बटोर
राधिका
सिरदरद
साइटो
exp
reser
dh
नतन
##dic
योगश
मडिस
gn
काया
लजर
##ौता
##गिरी
कारयकषतर
फरमाया
चौदह
##लयशन
गजरत
परखयात
अपगरड
बिगाड
आयन
##ोडियम
सगीता
##गठित
एबलस
पीएनबी
चटर
नीदर
खवाह
खामोश
सरजन
बिट
##जनी
ऑफलाइन
benef
##दीव
कलप
एसा
बई
मरग
अपरतया
##बॉकस
सटॉप
##वायर
शिकसत
##फो
असमिता
सौग
bhi
मितरता
gk
अनिय
इफकट
गरजी
यात
असामानय
परकोषठ
राघव
mal
सरखिया
उबल
ऋषिक
##डरड
शखला
बरबर
##यज
माहिर
धमाका
शाकाहारी
बचाना
आशरित
हदीस
lt
घसी
##िच
घणट
##que
पटाखो
छातराए
bollywood
##मनदर
##ark
मॉड
##rb
##धीशो
फरमा
असतोष
ताली
##िटन
अभत
दढता
अवरोध
rep
परीकषाए
पचकला
posted
माधयमो
जतन
यए
##शबद
अनयायी
भणड
film
इकोनॉ
##कारड
बॉयफरड
chudai
ओढ
process
नचरल
गौड
बसी
##play
बिरा
विसफोटक
अछि
##arti
मयक
अभिलख
काप
फिली
अचछाई
जनो
##चको
लिवर
किगरा
मखयधारा
##शिला
शोरम
##रज
##va
मजबानी
अपमानित
अशविनी
conf
आधनिकता
ji
कलातमक
सदढ
वरीयता
copyright
वलट
गोविनद
तबाक
सिवाय
ठग
सवतः
दषय
मिक
पढाया
जामन
एवर
song
मलत
shay
##unch
##news
रची
##ानगर
डरन
##rict
लडना
##ouse
##lete
एडिट
साब
मलल
मशीनरी
1975
xiaomi
fi
अरस
गोमती
##जको
कोटि
##विचार
आदतो
अपरतयाशित
##मानसार
बठको
अविनाश
रीढ
इलवन
वालमीकि
चिनहित
ननह
##wal
कालीन
direct
##88
##garh
रिमोट
फिसल
तटीय
रढ
pan
तौल
मगफली
हथली
कॉलिग
इनसट
जीस
अभदर
पहनना
after
self
उसता
तती
सतमभ
sun
पहचग
दबद
बदलखड
एडवोकट
हटकर
वोडा
##पलट
गरसित
लिपत
101
सामानयतः
ipl
##ika
वषणव
##किफ
अदालतो
##खानी
निकाह
कथाए
पकतिया
डटिग
मधया
असथमा
बचता
चलाय
##पराण
microsoft
बाण
करोएशिया
uptet
खोन
परतयार
सिकदर
मनोबल
##तमकता
##ities
यदियरपपा
रजीत
सतताधारी
ic
रदराकष
आसिफ
अफयर
instagram
परोटोकॉल
##तला
##डीह
अभतपरव
##जसय
कोषा
बहसपतिवार
बसबरी
परवाहित
ऋषभ
host
ईशान
रकषाबधन
जरम
ससकारो
सटारटअप
चचल
ताललक
बाधन
रामान
a¤°
##दको
बचार
##uary
लहरा
रोजा
ge
##yar
seo
अजान
मनच
विशवसनीयता
चाहगी
दबाकर
सधारो
जासस
कलकटरट
अनगिनत
ext
कपोषण
##धो
##जीशन
करवात
नाशत
game
५०
hon
उदधरण
कखयात
सामपरदायिक
ससथाए
सहली
आरजडी
घसकर
रकष
वॉयस
##ाहियो
पायगा
डरिक
pres
ठकरा
##विस
परसथान
##56
टरीटमट
les
भाईचार
##ude
पवल
एसय
एडरसन
वोडाफोन
जवाल
परातीय
##hor
मालदीव
झडन
फिकर
पोर
गरिड
##मरण
कशलता
जोसफ
##काया
##बाजो
चटनी
##endra
निविदा
सीताराम
कसरी
जवलरी
नाता
रामपाल
##ility
कसौटी
##दिता
रगमच
धमाकदार
quotes
##टरकट
पहचाए
सपकटर
blogger
##ст
रिटायरड
##पराइज
सानिया
मतसय
टाइटल
बिकन
घसन
लिपसटिक
वललभ
एकसी
मामी
शिवजी
धरातल
उततराधिकारी
टलीकॉम
लाईन
##लाया
खोया
360
##काब
हमीरपर
नानक
आरटी
परतिसपरधी
सटीव
वहील
तमबाक
चोदना
किफायती
##ople
कडीशन
महमानो
design
भरव
सतषटि
##आरडी
##abh
##over
##डरा
साली
माथर
निषका
##खलन
sms
फयर
कारको
आकरो
##ावान
गरत
निपटा
febru
इण
##निया
सनाओ
पाडया
पोरटबल
निचली
मानचितर
नशी
वचनो
दषपरभाव
आदी
बिजी
रोना
शरोताओ
1200
##डढr
अययर
फरासीसी
बदतर
उतरा
सौहार
##uc
मौको
##निय
इलाय
एयरलाइस
##विनदर
खिलवाड
सपाइ
##यआई
खलता
घब
करि
विमोचन
teach
घल
मदसौर
परिपरकषय
फटबाल
परपराओ
२०१८
रासतो
##ody
important
नसीब
##चौ
चहरो
मसकरात
खोली
अनियतरित
महापौर
रचित
तरिश
छातरवतति
मिजाज
##जीरिया
black
नियोजन
कोलड
मटा
आरामदायक
एएन
##वजह
जमशदपर
ओस
##wn
कलयाणकारी
खजर
रायगढ
थमा
कननड
खतरो
##itra
अजित
february
paper
अनीता
मली
पडोसियो
##घट
##जम
शिविरो
सिसोदिया
खवाहिश
एलपी
##िलो
गिरत
शषक
शककर
104
तलाशन
लिफ
गोपनीय
विककी
उदयोगपति
##ादा
##गिकता
##ok
बटर
मचान
पधार
मिलाया
यवतियो
होट
लाभानवित
सतसग
##गराउड
चरबी
इटावा
दसाई
बॉबी
doc
ताकतो
वशीकरण
करश
कोला
विदर
पीओ
आईओएस
रोकता
बचाता
ठिकाना
मता
पररक
offic
मोमबतती
पषट
तरिवदी
var
लाभारथियो
साइटस
धड
बमराह
##पथियो
काबल
एसक
1986
समझती
दामन
करकषतर
rights
##mer
पिय
इतिहासकार
बायोपिक
माओवादियो
आकरोशित
1960
अबराहम
नीदरलड
करबानी
105
सबल
अनाथ
##भौ
पराततव
मरडर
बछ
##खज
आयत
डरॉ
अधिका
check
थियटर
अपारटमट
आतमघाती
aajtak
जञानी
एटीऑ
कीचड
बीएसए
सरोवर
kee
cb
##फोल
ans
गदी
हसीन
पजीयन
visit
##27
जकट
थरी
हराम
सवाभिमान
वशाली
##अत
हमलावरो
माउस
cle
बलटिन
january
रखो
cricket
निरदिषट
ताक
२२
बसड
shiv
उपरयकत
धकल
जनमो
परतिषठान
##हीनता
##कलस
##सरा
रॉकट
samachar
गवरनमट
आनधर
##go
##कसन
परोप
इजहार
succ
फरसत
1977
##पटर
अतत
हटाए
साकषात
अकषरो
रियलिटी
ib
gujarat
##ifi
कडोम
##डड
movie
##फाक
बाबर
आतमनिर
इटलिज
नवजोत
१९५
बलॉगिग
विकासशील
दलालो
कलासिक
brows
करिसट
##ara
पषकर
nor
सकरमित
##मनय
फिलमस
तीखी
##काननी
##जाल
निरवाह
निकालत
जीवनी
बदा
विवादासपद
##बदल
इचारज
एवज
oper
रौशनी
पहचानन
करिएट
हरिश
वाकिफ
मिनिट
धीरज
सकरट
बठना
बराक
##टरोजन
सपदा
ऋषिकश
बसतियो
फहर
फौजी
सीवर
तथापि
साभार
manag
थका
1962
बवजह
कमिटी
परभावो
ओएस
ताब
कारयभार
उनन
##पटा
##ica
pak
इगित
सबसकराइ
बकसर
##ional
adv
dri
सराहा
एडमिन
special
हग
सजकी
##ould
गरभपात
नारगी
सरोकार
ढल
फरडस
झडप
##ex
फरो
मिलक
वोलटज
ak
दोहरी
सनहरा
1988
नयक
मरदो
महतवाकाकषी
इबन
किसकी
चारजशीट
कवाली
मआवज
आचल
##िदध
इकविटी
चटरजी
डोक
##48
##unt
save
शटर
गरकाननी
परषोततम
सगमट
सशात
यथास
##जीवियो
##सपन
वफाद
##यासी
last
परसकारो
sport
परतिरोधक
अननत
ऊट
कसत
छवियो
ईसवी
##जनय
सवदनशीलता
भिखारी
bah
##गडी
##विधा
##करीम
##दरशक
कलरक
technology
मौस
मकानो
पवलियन
एचआई
इचछाओ
एयरलाइन
गनगन
मकन
##खडी
##ारिक
आइकन
नकश
अपरि
##गरीय
शतरघन
आरडर
परहलाद
sn
निराला
सविग
मजहब
इलायची
भप
सामजसय
एबीवीपी
cust
छोडो
dur
सकाय
आईय
uj
short
समपरदाय
eas
मनस
सथितिया
##66
##asht
कशबक
मजाह
एमबीए
नाह
बाक
head
दिककतो
आईपीसी
##जीब
चनना
सीटी
##ен
##राहिम
विवाहित
under
पितत
डिश
वली
थपपड
मालवीय
धमाल
बिश
##mm
##29
जजब
ईशा
kare
समिनार
चाटन
भारतवरष
चिकनी
##ama
पकडी
गरदव
april
जसल
पततिया
कारयक
पाठशाला
वकया
bal
##विलास
##एमआई
दिखगा
##सटरकचर
वियतनाम
लचीला
लाइनो
शाश
मादा
समावश
सरकिल
कयास
बागपत
वायरलस
est
जलकर
मासक
##यानी
नरसिह
उसताद
##छी
रोजी
परमखता
सटरोक
टिपपणियो
दारो
डीलर
कोशिका
url
ओवसी
सोमनाथ
बादलो
कलियग
उपरानत
ay
dem
गनी
चाला
धारक
कढाई
सीढी
चनद
वारट
##लाप
वनो
मयजियम
तलसीदास
समता
##ावटी
##िवसीय
कोषाधयकष
university
वरचअल
चाही
कमपनियो
तातरिक
डरोन
बदधिजीवी
##नास
अरदध
cook
यातना
राजवश
नीयत
डीए
अतरिम
चिततौड
खवाब
##याह
वतनमान
वरगीकरण
##ललिता
परतियोगिताओ
ऐन
रामा
redmi
उखाड
सदभाव
चावला
धनष
कटाई
कोसट
##ky
##erc
सोची
sett
चौर
बबई
खीचा
सविस
##ов
ओझा
डिव
कधो
हगाम
जाससी
भटटा
वाइस
नामजद
ऑफिशियल
सामय
सगोषठी
नगरीय
people
yoj
कारपोरशन
सनहर
सपादकीय
जनसपरक
type
##ोटा
एलजी
ऋग
##शाद
सखन
bad
वयवसायिक
शिषट
करड
##ातिक
दिशान
सकतक
अवशो
title
खादी
परिधान
पलटन
##aye
यकति
कोइ
capture
जयललिता
वॉलट
उलझन
desk
##38
बतती
वत
महिलाय
हटन
##ream
ठिकान
सहभागिता
मानदय
नाखन
इसटिट
खाती
##फड
फरज
भवनो
1985
tak
गिट
नामकरण
हलला
मिलनी
चकरवरती
धरी
डिफॉलट
समाहित
विशषजञता
लीन
happy
##78
water
##वियर
सामगर
परतापगढ
ed
महाकाल
सितारा
महतता
##चीनी
##पादित
gb
सकषप
सतयम
102
पाठयकरमो
cry
बोलो
deep
आतमकथा
##वरधक
हायर
बिगडन
रपातरण
सनता
गणशजी
पवितरता
##बनी
##हाट
आवा
सादगी
उदयमियो
बवकफ
फलग
विसथापित
गणमानय
सीना
##णडल
##तियार
माकपा
पकतियो
##खोरी
अभिवयकत
##ियाई
4g
beaut
इसटाल
परामा
चितरित
अससी
लई
ever
##कावय
नियतरक
##िलिग
कलक
कराची
टलट
du
बलटथ
##ration
नवाचार
जगाड
रामनगर
भतीज
ऑपट
चटटान
उतसक
मटठी
far
##फारमर
छडखानी
लपत
डराफट
वाग
मारटिन
##use
दिलाता
लढ
आवदको
##लललाह
##ोना
##राद
##गरन
रकट
##बददीन
mp3
परकाशक
रिमाड
शौर
सोनाकषी
तडप
पदावार
मानहानि
तबियत
const
sams
एजड
##िषद
धबब
##ौकिक
वीरता
##ादि
##चीस
डरगस
##दोई
कारबोहाइडर
find
##एब
##बायो
मतरो
हवाओ
दशमनो
अनपरयोगो
##vide
##फाश
वहन
साहितयकारो
भागयशाली
गजाइश
##ron
month
किसका
समसटर
जडवा
भवानी
मॉनि
चौडाई
जडाव
खराबी
hand
हमम
रीजन
वड
एसओ
परणता
जाकिर
सबरीम
सपतरषि
##मीड
##सनिक
पीरियड
हवी
ago
शमशान
चलाता
झाक
टगोर
राषटरो
आतमनिरभर
खशहाल
ओज
सटा
135
जकार
गजट
मिशरी
इसानियत
##परणाली
जाली
##ालियन
वॉशिगटन
भागत
कौल
करणी
परयोजन
दवनदर
मॉडयल
भाद
##खानो
सिरसा
##परिट
रीवा
team
बगीच
सौपन
डबा
##एमए
सलाद
सरिता
emp
पोछ
custom
शीतकाल
कॉमनवलथ
450
सवाधीनता
समिट
इजीनिय
madhya
समपादक
invest
##ायाम
##िपि
ताबड
##बनधन
railway
बाम
किरणो
##आआ
##कीज
##puri
पचमी
सिहासन
जलती
rev
##नीकरण
छातरसघ
electricity
##34
साद
बहोत
दषयत
activ
दवरिया
जयपरकाश
##याब
हलफ
आभासी
रिचर
##कॉन
चमन
subscribe
बरबादी
लतफ
जिममदारियो
लाती
सततर
टडन
##चनद
##यस
history
##ोकल
##टनस
विफलता
निगल
खटी
ननो
पीए
ऋगवद
डयर
da
हः
विचलित
जश
जवालाम
##rat
पिड
शाओमी
सटाल
il
अनशसा
##खता
नोटस
गलतफ
भीमराव
##िझ
ससज
good
##िगशन
##जोड
##wali
##मटस
गोषठी
यहोवा
मलतः
कवा
details
सकिल
आटो
आवारा
दिखाती
एसआईटी
ककषाओ
##हाडी
रामगढ
##ope
सनसनीखज
##मज
##रासटरकचर
1948
मथिली
नजरिए
##गारड
सटडरड
डीडी
बदरीनाथ
दिशानिरदश
खडन
##ward
##osh
सफटी
चदरा
सजान
अविश
##भिषक
कटनर
सकरीनिग
hol
आउटपट
सादर
दबदबा
lin
डमोकरटिक
##भकत
काका
छिडकाव
language
##ासतर
सभोग
##ko
भजत
कौम
डअल
##aipur
ससकतियो
किरदारो
डीवी
परतिमाह
परशस
किसत
ठिकानो
cp
कदन
बताइए
नाटको
करानति
उचचा
##डियन
अराजकता
##ni
वलटाइन
बलकमल
जसलमर
अनर
##सवको
सतनो
एकतरफा
lim
चढान
वीकड
##किनार
२३
हसती
##ियात
वधता
पटीएम
ky
विषम
रचन
change
चिढ
##भगत
करारा
होडा
4000
अनतिक
दोगनी
school
lie
see
झलन
advert
भगवत
success
एलय
##ures
मदराओ
##परदायिकता
##ough
छिपान
बाकायदा
एपस
घरन
नोडल
मणड
access
भीषम
आलोचको
सिपाहियो
सअर
##ीनगर
फरचाइजी
##back
##सथापन
नाभि
आवरण
##wj
हरकतो
हदर
##कोड
जहाजो
मचन
हमर
##ient
##बना
खटख
महोबा
अा
1857
चपक
परायोजित
दीपा
चौबी
कटसटट
##ident
जयन
लखनी
आदोलनो
रहसयमय
privacy
सतरोत
just
address
##बाबा
जीतना
##ats
पतग
बोट
किनारा
ओन
सललललाह
मॉनिटर
फलता
उषा
##58
आदरणीय
हिमाश
दरकिनार
वादो
निरभरता
गरभाशय
खडग
भमिगत
कचछ
गलको
1987
एजसिया
##ible
पतती
बलाउज
दिशाओ
ios
चिरा
डाई
आतमी
बहाव
मटरिक
दवाइयो
##tern
मातभाषा
इनतजार
विजयन
वकसी
तरस
एनपीए
भडका
##ठो
बीएसएनएल
##िलली
##बधक
nahi
यनानी
सटोन
जकर
अनकरण
arp
फाइनशियल
##सरोवर
##नीज
मालवा
##दवानी
पडग
मखर
ससजजित
जमाल
super
गोगोई
सोडियम
##जडर
शरवात
##मनट
फोटोशट
##ौद
परसट
दायरा
सपततियो
जलाए
सोयाबीन
खलग
करारी
निखिल
##रियल
##रायड
होटलो
बठता
घटाकर
एकदिवसीय
निरवहन
हिसटरी
##पीस
##orr
खरचो
करिप
district
सथा
##दशहर
हरित
gand
वसततः
भगतना
##चालक
विघ
बिलडर
लोभ
कटन
##वनत
थरपी
एकसटरा
##मीनियम
ताबडतोड
चनौतिया
मारकिट
a5
वासना
दफा
हनन
शरीमद
बरफी
हाम
गठिया
परल
##गाहो
सपनिश
सजना
##ीकरण
##orial
दफन
इजराइल
जलवा
नसीहत
खादयान
रॉबरट
##निषठ
नमसत
नॉट
थरमल
samsung
परोमो
भसखलन
दरभागयपरण
हिटल
इटरनल
टाइट
ltd
##फायर
जातिया
खिडक
##इक
##of
##अन
##िरीकषक
परगनट
खनी
चौथाई
##वासीर
सनटर
एनिम
गजारा
एलोवरा
##board
वषभ
जितनदर
##णट
sou
अयोगय
परषित
तजपरताप
ste
rrb
भि
गरमीत
quality
निषाद
1965
यकीनन
कभार
परशिकष
गडिया
बोकारो
कठआ
एसयवी
विशा
affair
इसटिटयट
मोहर
prop
पराणायाम
परब
विततम
kap
##ces
ससमरण
२६
amar
effect
div
चोक
##कली
सराग
##रिकर
बलोग
परधानमनतरी
परदाफाश
इबराहिम
यएन
बयो
##वाहित
apply
button
सौगात
##चत
##जापर
विह
कलाई
##परभ
लिबर
घराव
सामरिक
सवरधन
बिदओ
पहचगी
हमलोग
असरकषित
असतर
कासटिग
विरो
##तमय
एडराइड
बकअप
##विदया
परचारित
ओलड
##79
##परिया
टराइ
##ानस
मखयम
आतर
viv
बवासीर
a¤¨
गरजएशन
कसटर
##राजयपाल
बीपीएल
अनठा
उतपादित
भौतिकी
##ont
अववल
शातिर
shayari
##िसस
चिहनित
भागीदार
उमदा
शदधता
##fi
राजभवन
छावनी
करकटर
दाहिन
ide
भाईयो
होलड
##dia
पोजीशन
ईशव
इसीलिय
टरासफारमर
झलस
लॉट
##gn
##amm
टराजकशन
२७
##ऑफ
बाबजी
##put
एचआईवी
##इका
एफसी
अनदखा
##ues
जलसतर
सवासथ
ससपड
अमीरात
##बरिज
परतिभाशाली
सासारिक
हरमन
वीवी
धीमा
कमयनिकशन
city
होशियार
बरती
एसटीएफ
reserved
टरिपल
गाए
##जिम
control
चारटर
launch
##तात
पारियो
कवच
खराना
नमः
रशमि
जनमानस
aad
जिप
जिक
शड
उपराजयपाल
मिनरल
posts
यौगिक
यमराज
##भागी
लडग
iii
तोप
नौबत
##plus
रोहिणी
बाधाओ
अधीनसथ
दाई
econ
गददी
अवसथी
विधियो
##यटिव
हीरोइन
उभार
उपनिवश
गरोवर
लगजरी
लाजवाब
दशरथ
कॉलम
##ava
अनशास
पकक
मचाया
रवीनदर
झम
मऊ
मानसरोवर
दवाइया
gala
हवली
##ोरा
शरीनि
##ness
##ship
##थापाई
कसरत
अटट
लियोन
सौहारद
hard
##ita
आईआई
जातिवाद
इतत
मलयवान
नयायाधीशो
परजञा
जाघ
गीली
शकराण
सकीरण
कीरतन
fuck
साउड
विधिक
मोटो
सदधातिक
पहिल
चौपाल
किनही
असथाना
##ोसिस
west
सीतापर
टकी
##मिर
बनानी
रामविलास
nc
दमकल
चीर
सवदश
चिताओ
सटारर
अषटमी
सलकट
मसरी
गजरा
गगो
अपनाकर
जवाबी
##cted
असहज
##बरन
रिकार
1982
ra
पहिया
एमआई
##टशन
कषणो
अफयरस
dif
##घम
फोटोगराफर
सदरशन
##tv
समायोजन
जवार
##els
##ba
उजज
आवाजा
पोख
गठजोड
आमरपाली
##कमान
हलदवानी
भीग
बालाजी
ऑकस
विपल
state
##ानिधि
घनतव
बिरादरी
हॉर
जरजर
jag
झी
बाबलाल
उललास
case
टरी
found
उनमलन
विततमतरी
धए
अममन
##णि
##हाउस
अनठी
बिज
only
##बिर
रौन
##54
वकषो
विशवकप
expl
दरवयवहार
लफटिनट
अनमोदन
बगावत
जयराम
php
हसतातरण
उपलकषय
परणालियो
सटरो
हिटलर
निरधन
मनाए
निषपादन
##दतत
ईश
लोकश
हाजी
170
पारिस
परणतः
धरमनदर
काजोल
##कव
मनअल
साहसिक
##आरटी
##चरित
240
गरदवारा
आमतरण
##बबी
लगायी
लटिन
##पटी
शाशवत
galaxy
##वादन
##फज
##धध
कमो
झलनी
##सकरीन
##फीति
वरषगाठ
ममोरियल
जलत
हिमाल
##res
prom
pos
वाहिनी
वबसाइटो
##नारायण
##ाहार
आवाजाही
जनमत
अरथो
mant
जानकी
report
भोला
ठगस
थॉ
हाथापाई
पतक
परयोगो
तानाशाही
##खार
##ासान
एलपीजी
भाषी
अनिर
नकशा
दावदारी
कारयपरणाली
##74
बयौरा
cro
आभारी
जवाबदही
तिन
सदभावना
ईशवरीय
ढील
124
##िसटिक
##ालीन
bel
a¤ª
चनौतीपरण
सकराति
चाइलड
पॉरन
##णडो
सनराइ
सटम
करियाओ
विपिन
##वरतन
गाजा
disc
जकारता
परतिजञा
डालती
वीपी
मरिज
इषट
##aan
हरदोई
##कषणन
body
काउटी
##po
##धिया
##पषट
सराय
सीमाए
मिरजापर
चाबी
पबलिश
##पली
महरा
यातराओ
vol
उमग
अजब
106
टरिप
1972
अपनात
##वयक
##िदगी
सपकटरम
सनयासी
रदरपर
सातवी
महादवी
टकनिकल
जोनस
वला
उतरत
धागा
मनोरजक
वजद
वकफ
##लला
विवचना
समझात
##वनय
apple
लाइफसटाइल
##विग
दिखना
##आरएफ
रघवर
असीमित
##बिद
star
पिसत
एलयमीनियम
जोडत
इटलिजस
शलय
अनगरह
हजम
गइल
हटाना
चगल
भाटी
अवधश
गगसटर
yog
रिवा
गरामो
आइसकरीम
##ify
छिडक
मवाड
शाला
##सथता
हयमन
##लीटर
खामियाजा
छपरा
दोहराया
##खयक
लौटी
##रीकरण
फोरट
लौटना
let
गमिग
भवर
##ely
बयानबाजी
अता
होर
बरहमी
बधा
दोहन
मलयाल
विनीत
जनरशन
एब
खाक
बपर
दरव
खलीफा
बदलावो
##ायकत
कणाल
ias
शिरो
शिकषामितरो
शोएब
गनगना
डनियल
मौतो
महादवीप
फलपर
चसना
अनपसथिति
फहरा
रखगी
एफडी
##gress
चपियस
##बाबव
##िशनल
##ाहब
सहि
##ोपण
लटपाट
चसत
नालदा
fast
##yl
भपदर
##मीडिया
बलच
पणडित
##खवाह
table
मोनिका
आगत
ऐपल
कचन
लिपट
अनवर
मिलो
मनका
u09
सरवसम
रोहन
इमयन
घनशयाम
category
उपलबधिया
विमानन
##हीत
##पीएफ
परणव
सवायतत
करिपटो
##गामी
एकीकरण
##ियोग
यशो
##गारो
अजहर
rss
##िकियो
शरॉफ
win
फिलिस
##निहित
admin
अनध
गोविदा
अजवा
kr
सिखो
पाउड
##वनी
वलफयर
##ाविद
कील
##शरम
कॉपीराइट
पराजय
सको
सवरा
##iles
पहचाता
pad
सवीकारय
bra
please
विकत
सपताहात
कचहरी
सिब
झोपडी
सबब
zwj
कमाया
मलयालम
आरटस
परकषपण
block
गजरती
खशहाली
run
अगठ
बदधिम
निकटतम
अटलजी
अनियमितता
बताऊगा
एसएससी
सारवभौ
जीजा
परशास
##लॉजी
##fc
एमओ
सिलाई
##ffic
वसीम
दशभकत
##जिटिव
avail
जनपरतिनिधियो
यस
निरमाणाधीन
डसट
##ск
सिमर
rbi
परतिभागी
सिदर
राषटरगान
amazon
एनआईए
रढि
पशी
रीता
1967
##आरबी
गिरीश
यनी
##nd
सविता
गरलस
##ping
परमान
##ोनियो
अनोख
कहलाती
समबदध
scheme
सोफ
जनमभमि
परसिदधि
international
कहलात
##ारोपण
एटीऑकसी
खशन
##मोली
birth
पौन
##face
कारबनिक
women
घाटो
##ोगय
hy
टरकिग
पडितो
भरकम
कडक
food
##post
राजस
##atta
नदा
शबदावली
विकरय
दवष
सवाति
भरतपर
पटटा
रशम
बहमलय
पनलटी
karane
smartphone
अनयायियो
##मीडिएट
घमासान
##धद
लकीर
##चकर
नयटन
एलि
मगनीशियम
##भजन
1983
##ॉरडस
डॉकटरस
अनावरण
##भास
सबरमण
पोरटफोल
हतयारो
खलगी
झकाव
##बबो
शिवम
उरवशी
चारजिग
hor
##माज
कारगिल
##तकला
रहसयो
central
जाई
डरॉप
अधयापन
अजीज
निरभ
mak
benefits
कारबोहाइडरट
पररिकर
किननर
यधि
मादक
गरकल
लददा
अकषम
जावा
इटरसट
दवारका
लौटकर
हादसो
बझान
मलाई
##राइच
छाई
बीएड
माडल
पनदरह
उगलिया
लला
सटरस
डिम
तिक
az
चतरा
सशय
सरयासत
गालिब
कागरसियो
सामानो
cum
आरएस
##जवलित
गतिशील
दविधा
बयाह
सममल
गजरता
मॉडलिग
उजजवला
ढाका
ऋषियो
##बहार
दराज
टरिब
एटीएस
बरजश
आतिश
घबराहट
जवालामखी
जननत
##ific
जीआरपी
पारिसथित
##काई
विलब
टीईटी
अमलय
बदधिजीवियो
तहल
जगान
नियमानसार
kai
##ер
ऑफिसियल
छकका
किक
##दरिक
##दायितव
पथवीराज
affairs
परपतर
मानवजाति
चबर
चिनतन
बाजपयी
##दवार
कसटमर
##utorial
मप
हौसल
बरहान
शिषयो
his
##शयो
लोकायकत
docu
सजो
टीआरपी
फकी
हला
मखतार
पशपालन
भरमित
पकजिग
दरबल
सभाओ
पोरटफोलियो
गटो
पारम
खिलजी
cha
##िवस
##थिल
दगध
टीप
##ena
वनद
आबकारी
डडा
डकती
बघर
सहकारिता
##ोगराफी
ref
सशल
३२
परसिडट
निभाता
फजल
चौराहा
ताई
पठानकोट
4जी
अखा
##51
वासतकला
##निग
चिटठा
रिसपशन
सीढियो
कॉनफ
शरावण
ओला
रिटाय
press
##ाइप
कलिन
##ili
plan
##atures
सतनपान
यजीसी
असखय
पारशव
लाओ
सगध
जोडता
दरघटनागरसत
सोडा
हाउसिग
हिजबल
##एचसी
विरोधा
way
तिज
पीटकर
घडस
सवामीजी
अधिकारिक
count
##वाण
टरासम
कोलबिया
##mal
##ster
हाथियो
सकलर
परमार
जीपीएस
विशाखा
सावरकर
##ोलिया
अभिनतरियो
मवमट
बीयर
वबकम
इफकशन
विजताओ
समार
दबाए
खिसक
##रड
पहनत
जनसम
##राबदी
४०
परदशा
कबिन
##khand
##टीई
कठिनाइयो
अवरदध
रोककर
आईएसएम
##ोम
बिललियो
सौरव
महापरबधक
bab
हालातो
##ऊगी
पनरविचार
vari
##बाह
बारा
उ०
परवतीय
रिकवरी
चरचाओ
मदरासफीति
दलहा
पॉजिटिव
नियमा
यनिक
परविषटि
लकषित
कजा
नवय
करवाकर
बिजनौर
फिराक
##ोगरी
कतिया
परियोजनाए
##ner
3d
डीआईजी
मिलावट
नियति
कॉसट
##एमई
चनत
याचिकाकरता
return
अनौप
राजनयिक
जिहाद
सममख
तरसत
password
रद
वशज
खिलान
दरघटनाओ
टयमर
असविधा
नतीजतन
नवनिर
सरना
##जददीन
चतरदशी
आघात
बालिकाओ
असथाई
शरणारथियो
अफवाहो
उपजा
अनवषण
line
घमती
पडाल
पटवारी
गॉ
him
रगिसतान
##चारिकता
शभारमभ
##hod
भीमा
हाइक
##गरम
एसडीओ
दशम
ca
खरीफ
इकठ
अकादमिक
डगर
हाइडरोजन
कोठी
समो
हिदसतानी
ससथागत
होय
जरमान
##यना
अनह
hell
अमरद
##बाइल
लहरिया
यधिषठ
लकी
परीकषारथी
एएसपी
##कलप
सनाए
##काए
बीटा
महापरषो
mult
सॉनग
##ारह
करिसटल
समनवयक
बनियाद
गराफिकस
audio
२८
##ctor
मरखता
problem
wr
##चितय
सषम
जादई
sit
गाढा
उचचतर
2500
साजिद
canc
तरिवदर
##ret
आरभिक
train
छडी
खलगा
एगल
रिटायरमट
चौकीदार
कीबोरड
##हादर
##itive
असरदार
ताइवान
परित
परतिबधो
वरकआउट
आपातकालीन
गदग
रितश
सवाई
sharma
आनी
फाति
शिना
वतत
शौरय
पचचीस
नासतिक
जररतमद
आपम
फील
शिकषिका
उकस
##टलड
तहलका
##फकचर
माउ
मझको
##दाम
शीतकालीन
परदशाधयकष
ईसाइ
बहसखयक
a¤²
बिषट
पकवान
समाजवाद
मधशी
परववरती
हरस
सोलकी
##ीया
दशमनी
वयजनो
परची
अमरिदर
रजिसटरार
अदशय
मौनी
नयटर
परमपरागत
पहर
साहनी
बढाप
कणो
कहब
परतिरकषा
शरोता
तित
कोसी
##ae
मदरस
sah
इमत
जमाव
सवतनतरता
जनजातीय
असहाय
220
a¤®
पकान
लटरो
##सटस
ash
हबी
##मडी
मिनिसटर
कररता
पीरियडस
hello
इनवसटमट
window
टिकाऊ
अनौपचारिक
sand
वजीर
##fl
करवट
##िरण
चाटना
काजी
अकि
किलोवाट
असमानता
गलन
studio
##fo
दहा
कारतस
वशय
परविषट
थॉमस
टीसी
शिकागो
object
खामोशी
##ाएक
घोटालो
रजिसटरी
##ादितय
##तीपर
जनपरतिनिधि
रौनक
##ading
114
गतवय
##opal
सलतानपर
कारब
115
नकवी
एकाएक
निरजन
services
मौसमी
##98
शिकारी
उरवरक
आवल
##यारक
रजनीश
कवारी
सरआम
उततरदायितव
##जसट
एकसपो
##spot
असहम
फलॉप
music
iso
बारहवी
##घी
बिड
परसतावो
##ततव
##ula
बारीकी
दारोगा
पिछडो
##टोन
विदरोही
##िशर
मडला
एडिशन
रटीन
ठाक
चिललान
सयाही
दपति
अपनाना
मतका
सभास
##िनदर
##भज
सकॉ
##ape
सनापति
सोचिए
##वधि
बोहरा
##001
भिडत
पारमपरिक
750
##मकस
मिलीलीटर
घबर
कथाकार
sr
##कसा
पलटवार
२९
जबाब
परिवरतनो
ओलम
फाटक
वकताओ
ऊगली
नि०
रामजी
डवलपर
एहत
patna
##कताओ
##68
उपकषित
पानीपत
##गानगर
दालचीनी
तारकिक
जनसतता
jans
बाराब
1920
लददाख
परशसत
##दलपर
रीडर
##शिषठ
दिखग
उततरदायी
परजातिया
लखीमपर
उतपादकता
परीतम
जडकर
##पलली
कविताय
छटा
##73
टलर
आहजा
एकसटशन
डोकलाम
कषक
टोकयो
लाम
जामा
##light
##जीज
सबरीमाला
चहो
चमोली
कारनामा
##चरचित
सीखत
##ids
1952
again
नरसहार
नयड
anal
भमिकाओ
##zz
तदन
विला
मनाली
झलना
सलिपत
जोस
पटक
चकित
तिबब
nah
##co
1956
मघवाल
रपट
##row
डासर
students
वीआईपी
पजीवाद
377
सनराइजरस
पशा
नययारक
##ants
ताह
##आला
ub
अभिमनय
गशत
सलय
जनजात
yojana
डरी
चढाए
बजन
##विज
परिण
1973
जनप
ईरष
डीएस
जातिगत
बलदशहर
##ami
एनज
अनलिमिटड
झरन
सटल
रईस
लिमिट
टीकाकरण
मॉनसन
जकड
हइ
नियमावली
##aran
शौकिया
बीता
##डरगन
कलीसिया
##जए
mer
पनिया
shiksham
रगोली
voice
बिठा
##ization
महराज
घिन
शिखा
नागिन
##sa
बकगराउड
कॉनट
हजारीबाग
पलिया
पहचाई
##आईसीआई
old
##तय
हिनदतव
तोडत
tax
नौकरशाह
every
बहराइच
bill
सीढिया
परतगाल
##साईट
चता
सपरसिदध
अखरोट
फारमा
निरोधक
बटालियन
##ird
कलाइट
विदयतीकरण
दीरघकालिक
कडर
अदाकारा
परशासक
चिलल
कोतवाल
##गिस
##hag
वाहक
डनमारक
निको
कमाना
आउटडोर
पहचात
परभाग
दरौप
##आरओ
बीडीओ
पली
##जजो
परफल
रिसक
##वाक
सलब
बोलकर
##fe
अधिकता
नसर
महआ
आदरशो
kis
##64
ततरिका
तीरथया
बारद
बगलौर
1981
मशरम
नगरो
बटवारा
मडिसिन
निन
रखिए
डिपो
लिचिग
कलाउड
गिरान
बिटिया
जसवत
दतवाडा
##बसडर
अनाम
which
नसखा
अलका
crypt
शहजाद
##िकषण
असबली
##मसार
कारखाना
कमिया
इडियस
डायलॉग
सझावो
bat
परबनध
##डाउन
ठकदारो
##िपीडिया
नहि
पडना
पिथ
pict
शिनाखत
जलता
खोलना
child
आईसीआईसीआई
पमप
चनकर
कालजो
shikshamitra
##मोबाइल
कयकी
बधी
सिबबल
कलाकति
आगाह
features
बाराबकी
दरौपदी
nd
##tain
domain
डरीम
आपा
करणानिधि
रजी
रविनदर
उननी
भरतिया
परोससिग
हवल
18व
खिचडी
मिथया
ai
मलला
जीएम
तरिवनदर
खालिद
डटाबस
तानाशाह
##दधार
आरटिसट
##टिस
##ायगी
अरथशासतरी
लास
##बटन
शरीमान
विजया
एथलट
विनमरता
फरिया
सीवी
बहादरी
परचड
sports
डीन
आतमिक
##करिप
तखत
सरद
secon
मगलो
वाइफ
सीकरट
browser
इको
वलस
पछी
ha
किसको
लिखती
##wer
रिचरड
एगो
options
चितरकार
परीकषारथियो
अचार
फरबदल
उभरत
नाला
पराई
बीचो
उषण
चटक
पनड
##जाबथ
wah
थमन
##वारता
पिलान
भादर
##वॉ
आईटीआई
माइकरोफोन
फिलिप
उदयोगपतियो
समसतीपर
##िफिक
छिलक
कषतरा
राषट
वयसको
शानत
थिर
भीतरी
सरगना
##ici
पिछडी
107
विलपत
जखम
औचितय
हनमानजी
जकलीन
hair
एएसआई
सामगरियो
गॉड
##िगा
ऑसकर
विडबना
रडमी
झला
##धारियो
कायर
होमयो
सहलियत
max
upsc
##वसनीय
यधिषठिर
mir
तली
माड
जनसघ
उभरी
एडरस
लॉटरी
महफिल
दवो
पाशचात
##दौड
दरयो
हरबल
खानदान
इलजाम
टोला
हावडा
##परात
##सतिक
##शिल
##गणा
सनपडरगन
##ule
अभिला
नयोता
परखर
रसीद
बघल
bharti
सदगर
बवॉय
वयवसथाओ
सतोषजनक
कागडा
तनखवाह
popular
दाता
आवतति
मशरर
कावड
##शनोई
इनद
चारलस
##hr
एसआई
रिसी
उननयन
जीरण
पाला
लथ
##पाठ
शरमसार
घटती
शाप
##वीप
परपोज
शरीक
सरस
निचोड
राजभर
रामचनदर
एनआरसी
अकार
ठान
परिणी
बहिन
मछलियो
हरभजन
1974
असथि
डराव
वरजित
चोटिल
कोनो
103
fire
वकर
दरयोधन
cbi
नमो
धोकर
##ote
कसबो
एमबलस
light
फालत
##गिको
##ives
परचा
##राउडर
सतना
मशररफ
धाग
हरो
परायद
राजनाद
परताडना
परिषदीय
energ
असतय
शदर
##bs
##पालक
दमा
धज
अनसची
atm
शनिदव
मदानी
##ासाहब
शोषित
शरणारथी
कसन
असगठित
##बतता
०००
निराशाजनक
खगोल
माताओ
परभाकर
अमानवीय
##थिया
इटरमीडिएट
नाटकीय
##िलर
भडारी
public
results
महन
##ove
दयाननद
यकरन
सननाटा
available
लटी
आरोगय
राजनादगाव
रव
##eld
pin
दबी
पारटस
करला
अलाव
सिकको
टीचरस
आगजनी
भलना
गिरती
उनहो
एलिजाबथ
लामा
विचारक
गीगा
बनध
users
files
बयोरा
##कोहल
राजकोट
तमाशा
ann
वदावन
अलौकिक
अौर
वशिषठ
निमित
असलियत
शकत
##िपिक
##हरत
परभतव
शासना
##ather
खोद
किनारो
आउटल
कमाडो
सपाट
गलतफहमी
##ini
जवाला
लगर
मायनो
##ारमया
सहरसा
करिय
हिनदसतानी
नाइजीरिया
भतत
##घाई
##यरिग
परणतया
विधवस
शराबबदी
दरदशा
##विरोधी
updates
digital
मानदड
जिमबाबव
बरफबारी
टाप
टरिबयन
when
फातिमा
##ng
माघ
express
यएई
सरवसममति
##घोषित
टिहरी
ham
जनरट
offer
##तको
मरियम
109
दरशाती
परारमभिक
अलहि
मागता
##घय
##कारय
लगिक
सिदधारमया
##सीर
भरता
फलक
इशारो
विकिपीडिया
करास
##ime
server
सररा
आखरी
ess
##भाष
रीना
अविशवसनीय
##alp
सकलित
खरीददारी
पाशचातय
फिरो
december
डिकस
##जब
करतवयो
कषय
अचक
चिराग
काव
हसीना
रिपोरटो
कॉस
पकषधर
diwali
सकटी
कपाल
मलाइका
##ims
हाइपर
झप
भिव
एकसाथ
अफरी
विलकषण
शयामा
clo
##बआ
फग
बीटीसी
सवचछा
मीनाकषी
अधययनो
interest
टाइल
वयत
जयोतिषी
नपस
कोस
यातराए
उदासी
मखयमतरियो
##शती
##कराफट
मनचा
##छार
निरपकष
घटको
लासट
##ctions
अहल
##65
हासन
काउसलिग
congress
##bal
##फिर
बहचरचित
##a¤¨
शखसियत
##िजन
सातवा
शतरओ
घिस
जॉनसन
रवीश
##ियाल
आयोजक
##32
साला
##वरणीय
जिओ
शाखाए
अशाति
##एचड
party
vik
टलिक
##ारग
##rist
दबोच
टोली
वाटस
arch
मिडिल
असहमति
##वसन
सिरोही
##read
सरवशकति
पकन
luck
नायर
सरवथा
अछत
230
पदमशरी
कएल
##ॉलज
एलन
रणनीतियो
##69
हलिक
नवमी
सीतारमण
पढती
टरासमिशन
रगत
नयर
पराधिकारी
लाड
परणिया
easy
ऑफरस
ऐकट
speed
jansatta
औरो
विलन
वाजिब
emplo
पीता
##धारक
यातरिक
बीएससी
लखपाल
आली
लाभारथी
शरति
पशवरो
tot
जजबा
सटरीमिग
##हीम
शिकायतकरता
govt
पीसीएचड
टयशन
टरको
1978
##डटस
तबादल
पिसतौल
##но
##िदास
नियन
##िकीकरण
विकटोरिया
trick
हरज
समानातर
करस
नवभारत
चमड
गडड
नवादा
famil
सकॉलर
परोगरामिग
रिवरस
गरीक
plug
##जीक
बाडी
##ason
तमनना
भना
लाभपरद
look
बचाकर
टरिजम
yah
आतमसमर
नीतिगत
रघनाथ
gandhi
उभरा
gh
मधबनी
##मितर
##tc
टोरट
आनधरपरदश
##लोगो
अननय
बोनी
महिष
जकी
माटी
परवरिश
lic
पराकरम
टरिसट
चतनय
सबसकराइब
liye
बीसी
नाभ
यगो
##फिग
फरहान
गरस
##ict
मडन
लकचर
गरनथो
गहसथी
##करीट
घमना
टथ
कटोरी
मगशकर
##ump
oneplus
डिसटरिकट
सघरषो
परवागरह
पाटकर
फिगरपरिट
वयाकल
##49
भरमार
पिजजा
विनायक
दरसथ
method
ऐश
मोहाली
पररणाद
##ोजिट
1979
हलपलाइन
##to
##ра
पसिल
कविन
condit
पाडवो
##भाषी
ढढना
घरान
रसकय
वारडो
जननी
##बाण
##परिषद
नयास
viral
पडया
उदारता
mahar
rikording
डयल
वयवहारिक
पषठो
धातओ
पजारा
विकरताओ
खसारी
एनटीपीसी
उथल
दौडन
जिदल
महानायक
डायमड
निलबन
अभयारणय
ly
सतिथि
##nat
सहस
महाकावय
दमका
वायद
गहसथ
she
सीएमओ
तलनातमक
फारक
सवरणो
फकीर
##िपराय
##वशाली
##यरिटी
शराबी
पजीवादी
ओली
चरान
गीला
एथलीट
राबडी
gold
सहाना
5g
##जज
समझो
##तालवी
पीडीएफ
##लता
परयासरत
##चचि
आयोजनो
सपतम
वहाटसऐप
निशानी
इबाद
एकबार
आयोजको
सरवतर
टरनर
उडाया
सरचारज
झिझ
arr
पनामा
डीएल
1976
level
tal
##कारक
बहगणा
रजिसटरड
इजीनियरो
भखा
secur
##ारसी
बढाती
two
फीडर
ईरषया
रणदीप
नीली
##ography
##medi
सौफ
परषारथ
सोनीपत
##बोल
गौशाला
keyword
झोली
लिखाई
बॉनड
१९३
परतिभाओ
भिकष
रिकतियो
##isa
##oth
पसतिका
परदतत
blogging
महानगरो
अविवाहित
जहरीली
खोलत
दावत
##बहादर
चितरकला
पिथौरा
natur
किगडम
कलीनिक
हठ
सपरभ
##ियोजित
नाममकिन
##ावसथा
छिन
तआला
महापरष
भनक
औपचारिकता
जकसन
##ागत
दिमागी
इनफकशन
वयसतता
सटोकस
पनरनिरमाण
विदिशा
sav
गप
कथोलिक
सॉल
सावत
बागवानी
फद
##विरोध
##रियर
परतीको
tweet
end
अभियोजन
वोटरो
धीम
इलकटरिकल
shop
भारगव
##br
##urs
टॉम
परमपराओ
उतारकर
करनाल
##विलस
विकिरण
118
विकी
भिननता
nahin
मधयकाल
लालसा
आतमसमरपण
थली
कटिहार
अपरिय
तवजजो
##ौस
शशिक
अलमारी
कारयकष
earn
ऑबज
आनलाइन
पकिग
तसकर
##ancy
##वतत
बिजनसमन
बतायी
पराधयापक
बलाए
ud
##चरो
जसपरीत
दोषो
##mit
महिन
सखदव
mumb
beng
एकसीडट
नयरो
लहल
गोता
कसीनो
खादयानन
तोग
##वसतर
मालिनी
फायदो
बधओ
महलल
face
incre
जगदलपर
लिनकस
पीएफ
##istan
articles
विकरमादितय
महतवाकाकषा
सिलिक
खिलौना
महबबत
सामत
some
परखणड
एचडीएफसी
करोधित
पादरी
शराप
##72
पापी
##सटा
बिलो
पिकी
याह
चनदन
सदम
माहशवरी
ujala
##करष
##पनदर
##विरा
अमब
##नम
अभिपराय
जतान
##pe
थाइ
अनपसथित
personal
नयकल
band
परतिवदन
छापन
##िठ
रणजीत
बनाओ
बिताया
तनशरी
मदरित
कारागार
एकजटता
बीरबल
उदधत
एडीएम
हीग
असद
चौरसिया
लहरो
##pm
##परधान
उडद
जानिय
छिदर
सकणड
lap
##वडकर
ऑटोमटिक
गलकोज
औपन
##योजना
वलड
##ries
भलकर
##तरय
राठी
वासदव
गजलो
सनदरता
गिरिराज
##ियाज
रशीद
सपारी
मधमक
खोकर
marketing
नरो
##खोर
मजटा
colle
लभान
अदिति
खडपीठ
अनलॉक
cg
किललत
पारसपरिक
दहाई
शिकजा
मारकसवादी
रखिय
आयशा
tools
##इत
##डबल
सनतान
खलकद
भिलाई
मकट
गगाजल
डबो
अधिशा
fre
भाकपा
a¤¾
तफरी
शफ
##orrent
##गरदी
मागलिक
काफिल
मजिला
चिताजनक
चची
##एक
अपायर
उठना
कॉलर
lib
हिप
##करणी
मचछरो
house
माथा
वसटरन
econom
जहरील
किशत
मारजिन
##नालडो
commun
##यद
##िसिस
नली
मारता
traffic
तदर
##धिकत
##ाइटिस
कामकाजी
color
आरयन
##िससलाम
शोभायातरा
its
अभियानो
दयानद
परवीन
there
फारमास
1930
निरभया
119
मदरसो
cir
##भयास
अरसट
दकषिणा
ent
##untu
सराव
जहागीर
मथय
##एव
हमरा
वबसाईट
##िषठा
रामकषण
विशलषक
जञापाक
सषमिता
##भरी
कीरतिमान
नागा
गोतर
बालको
कटटरपथी
दयनीय
##रादितय
##ci
एनबी
पतनियो
पकारा
##नागरी
##isgarh
wed
अपमानजनक
आतिशबाजी
खरगो
सतयनारायण
##raj
##iter
एकसपल
असमजस
##चिकित
यापन
विशवा
126
बराउज
कातिल
फादर
इतिहासकारो
अलहिससलाम
सिडनी
नाइटरोजन
परलय
विशदध
साहसी
मकतिबोध
जतर
करानतिक
विषयक
1969
पितरो
कपी
परोकष
ललिता
सलन
मिलीभगत
जागति
firstpost
पारल
एडमिनिसटर
वादी
पीएसी
कबरिसतान
कॉमिकस
अवमान
परतिल
लनिन
impro
पम
खीरी
छविया
##दाजी
बशरत
दरिदर
##षार
सडान
पषपा
भटटाचारय
##पोसट
वीरनदर
एसोसिएट
बनो
फिकसिग
वरी
परवति
मखौ
परमिट
मिशल
मसतक
मनयफकचर
खटखटा
##ौरिया
रोनालडो
##लाहट
shah
skin
धाध
##फिस
##िसता
##धिकारो
करियाकला
छाए
पोप
लगवज
परतिब
god
तसकरो
##िटज
##भाश
कपशन
भाषणो
जावडकर
लालकषण
यपीएससी
जनादश
डवलपरस
इकटठ
डरम
करद
पीएल
सरजवाला
##गठन
##cm
कलाइ
गिरता
सचालको
भोर
अभिनीत
इमोशनल
छदम
ठहरन
अरा
##31
पीलिया
कशीनगर
चमतकारी
अफी
एत
सहगल
ओलमपिक
झाबआ
शिथिल
पकाए
fa
अशदध
##डोल
256
take
कारयसथल
650
कायद
अनपढ
गजारिश
मसकराहट
etc
उरम
सनक
गावसकर
राउत
मसलो
घराबदी
कारयवाहक
अपशिषट
##ination
मरण
कोशिकाए
टवटी
##do
सलझा
##yt
इजिन
हरषवरधन
कोठारी
काटना
quote
tutorial
##सपट
एचपी
hellip
साझी
अटकल
रिपबलिकन
alib
##वदर
149
शतरज
upload
डायन
तहरीक
असथिरता
जदद
##ei
नारथ
उतरकर
##artment
सवसथय
कालधन
उपनिषद
इनवस
अनकलन
परकरणो
झकझ
नदन
##ran
परजोर
natural
##नापर
##ालाल
बलवान
मडरा
नागालड
कोहराम
असहि
तोडना
##हाना
##pal
भरोसमद
गिनी
बताएगा
1957
समाग
सवको
गोभी
लहज
aj
इकठठा
बागलादशी
मसजिदो
size
रवाडी
कलरस
टॉवर
##ham
##खट
##ाजा
नमकीन
##सलम
cut
जाघो
##रव
फडिग
लाठीचारज
1951
फारमला
68500
##vers
##नाथन
bhopal
alibaba
ker
डॉल
##फासट
परयावरणीय
बीघा
##ॉनस
पनाह
1800
बासकट
ननही
अगआई
##चकित
वारतालाप
payment
मोसट
उठाता
निरणयो
हवाईअ
रोहता
सटनलस
हामिद
सादा
long
गटस
जीज
फिलमाया
परिधि
अलबतता
सीकवल
दवनागरी
अजनबी
झासा
छतरपर
ऊतक
##िसिटी
गलमर
पिथौरागढ
##चाह
मीडियम
1949
##दषटि
शासनादश
##59
करऽ
रॉयलस
फफड
नमर
##ारती
मरगी
सटरट
##वशियो
गाउन
रसो
बहतरी
मझम
science
परवततियो
विलियमस
##nl
कमटस
विथ
चमच
जिममवारी
चलग
सलाइड
##वतिया
जलाया
##चराइ
अरबाज
जयोतिरादितय
नगद
धारको
हडडिया
##वारो
370
##गिग
धारी
##यया
##िमम
सोनभदर
घोषण
वाइलड
गाधीन
##tp
अरमान
शिकषाविद
सीताम
धयय
ul
खवाजा
फटपा
resp
घमता
##सदह
##माई
धारदार
ऑरगना
वारटी
आराधय
ललितपर
अधड
नरसरी
लगवा
मराद
हमी
सलह
कडकटर
##uja
ऋचा
मदिरा
##पतनी
##मिदा
तनिक
##वध
##सरजित
टसटिग
फयचर
शरकरा
कपसल
रीमक
कोचचि
विहीन
##esari
मकाबलो
अभिमान
blogspot
परीकषणो
##कलचर
vib
war
सवारथी
आरपीएफ
बिताए
खलनायक
एटीऑकसीडट
झो
##किशन
1966
नजार
दरम
नककड
कासगज
##link
खभ
हनरी
##िजर
चौबीस
तोगडिया
वहद
सनिए
यनिटी
ससकरणो
##िनय
##ift
शघाई
बलन
पलॉट
सदरभित
बरलिन
घमड
ubuntu
बढाय
tele
कडाई
बौछार
खरीदकर
ऊन
कॉपर
हडक
सरब
सीजी
सशासन
##वसथित
##समिति
सदशो
ayur
परातन
कागजो
stock
अजलि
##ललाह
इनो
पिघल
नासिक
दरशनीय
परासत
छटन
##िसक
सरडर
ततीया
pal
बीजापर
beauty
जकरबरग
दवघर
##por
नयायालयो
##िडोर
परशनपतर
पीटन
पाम
पिग
##रमी
काटत
कदरत
जयषठ
जीनस
परमाणन
बासरी
सीबीआइ
पणयतिथि
छपान
##ey
नीचा
कारयशली
अफजल
मिठास
परायदवीप
सरवशकतिमान
लौटान
मिलिटरी
घोषणापतर
astro
डडी
##ming
तनावपरण
हिलरी
वीणा
##सतक
##मटरी
तगी
मराथन
याचिकाओ
ओपनर
भतपरव
टिकटो
##वव
विवाहिता
सीपीआई
says
##गधा
##लिटी
परिटिग
अशो
वाइट
सहजन
##बाड
yes
##53
विधाओ
बचाई
कलणडर
दशमख
सहलान
गाधीनगर
लरन
##गह
##शीर
##lex
kund
##पानी
परतिया
आदम
##चरचा
need
##haar
अकस
बलचिसतान
मखमथन
##ोलड
योजन
##डीएस
लौडा
डराइग
##िटशन
ईसीजी
इबादत
os
mu
तीख
##rib
अकलपन
##ged
चपारण
##clus
अवमानना
छतरी
सनसान
लडिग
लाभो
वकषारोपण
रहिय
मारमिक
यनसको
वजहो
mumbai
ps
३५
112
पोलड
फीडबक
ear
वकट
भगदड
राषटरीयता
##षन
मोना
अपनाई
महाभ
वरगीकत
चिग
सिगन
आतो
राइटस
आतमाओ
learn
कलाओ
बखारी
##akhand
गडो
दिलाना
गलियारो
अनरा
एसिडिटी
एलएल
##ोतत
collection
रविद
शरमिदा
गरओ
मकरस
बवाई
बीतन
आदमियो
अफरा
##हहह
भागदौड
मॉडलस
भाम
सजित
##बनदी
लॉनग
writ
##पततियो
असभय
जादगर
सबरमणयम
दसव
11वी
इतालवी
##पटटी
कराह
विशवयदध
सबोध
##cle
निजीकरण
विशलषको
मोनो
जबतक
ढीला
मकनिकल
यकष
ठणड
पनरजी
बटलर
जीमल
treat
yad
सटडीज
##लाईन
सातो
आशचरयचकित
##फय
##णवीस
सभाली
नवाजददीन
lead
पढाओ
##attisgarh
सीलिग
तिरग
je
using
हसा
अनि
शलियो
बनामी
खरशीद
तालाबो
दफतरो
चौको
सलवार
छडान
मिरर
कॉमपलकस
##डयन
बरसा
बनाएगी
##ईन
##सटो
योगदर
नजरिय
##ानाथ
उततरकाशी
बालटी
दबो
iss
उसमान
सरवोपरि
अकिता
लोधी
कमिसटरी
बाटी
रडकी
अनबन
बरमन
security
चिपका
जतो
पथल
इगन
भगवन
२०१४
गोकल
##कलो
##37
एलसी
protected
##षमक
फडणवीस
अभियकतो
शामली
एटीबायो
1942
शिलाल
समितरा
आपत
निपण
गरीस
पगडी
फितर
##नीत
non
ओट
खीची
कमयनिटी
तीखा
वाईफाई
चारजर
कोरगाव
चपप
जाइय
समावशी
जरनलिसट
motiv
शलो
##शरण
##यामी
महापरव
##इजिग
झन
सोचो
धोना
दफना
परबदध
ठठ
उदधव
हारी
तरबज
महाशि
दासता
खप
निरहआ
##कलयाण
चरचाए
परधानाधयापक
डिसटरी
जमीदार
पटनायक
दादाजी
ठाण
नयकलियर
चषटा
पलसमट
बरोजगारो
सपादको
खबी
##टरट
बचारा
दिखगी
सिनध
advertis
अखाडा
छिद
विकारो
वीसी
##जला
अशवत
##वरसल
भगान
वॉच
तरजी
##67
metoo
निमितत
परिटर
पोषित
##omat
जमाया
भखमरी
join
घड
अकड
blu
kapoor
नियोजित
जनमी
नौव
##ोनीत
usb
निषकासित
कमात
trend
उमरकद
मिथक
परामाणिक
दद
मननी
हाट
बरकअप
##पडी
##पपो
दीया
तातकालिक
खरो
कराएग
दशदरोह
##बदिक
चढाया
यरोपियन
##ни
परतिरोधी
बहतायत
भदर
बीएम
नॉरम
विघन
मतरालयो
भजता
##बोधन
रचनाकारो
जिममदारिया
परतीकातमक
धमाको
ele
आरया
सवयसवको
##ized
पाउ
परीपड
##िपकव
टॉपिक
दामोदर
शशाक
सिधी
वासी
कीटनाशक
माफियाओ
##गजो
बढग
दरवयमान
मोज
भागा
rate
बफ
समॉल
##दीर
##ाजिक
महकम
उदघो
मसालो
अतरनिहित
पहनती
उपमहा
##कब
परर
सटीफन
##बश
मछआ
weight
550
##ाइए
डीवीडी
लीगल
amer
एनएसयआई
राउ
##ावरी
शरीलकाई
तिबबती
मडप
बलरामपर
aa
मारगदरशक
वनयजीव
निजता
कनयाओ
notification
income
##जशन
असपषट
कालिदास
कॉरनर
कषी
डिटलस
बजश
बजात
development
साहिल
करपशन
11व
विसतारित
चोकसी
नाडी
अभिनदन
खरीदार
kan
हसतिया
शलनदर
##कटरोड
author
राजक
बीन
बियर
रणजी
##inal
आसओ
अनवरत
184
नवगीत
चालीसा
##ोसतान
नाईक
परिल
लाचार
गोप
बीएचय
सीमावरती
##ऍफ
खोजा
करजा
तरता
अरन
शभकामनाय
धौनी
##ानतरण
आयल
##chal
उनमाद
फोरड
अनिता
शखावत
खरगोश
कची
तापसी
##बिक
कोहर
धमिल
अकरम
गढी
जीएस
दिलात
पीडबलय
कॉनसट
##भम
honor
सनामी
theme
हरमनपरीत
हलिकॉपटर
इसराइल
मनपसद
karne
शलश
कतियो
शयन
आदिल
##डरोम
हताश
sum
по
##रोजगार
खतरी
छापाम
सीएफ
पनप
परतय
सललम
रचनातमकता
टवीटर
गजरी
ककरीट
फलत
ओकार
मनोनीत
सगमर
मौलवी
##gi
धोती
विकरमी
भडकान
पिघ
विशषाधिकार
##ोलो
##थरपी
मकदमो
कणडली
पदारपण
दादरी
model
##ठल
##मदिर
मोशन
vivo
a¥a¤
##हरि
shri
टागो
ec
कजय
जीद
बताब
पगबर
५७
अनायास
वयाखयाता
एकसपलोर
पारष
1968
परिणीति
यतरो
करनवाला
डालो
तरिकोण
ढढत
पहचगा
1964
screenshot
##box
नाखनो
कारयकषमता
अफीम
sanj
साइना
terms
माइगरन
जिगर
जॉबस
फिश
परभास
##wan
आगनवाडी
मिडिया
##पाती
परदरशनो
पदसथ
दिवाकर
अवयवसथा
दरगम
सकसअल
ताजगी
सीतामढी
cs
जिनपिग
कॉनटरकट
खीचकर
चरित
छठा
दोहा
दबिश
गतिरोध
बझा
५८
##गमन
दीवानी
जयोतिरल
सरफराज
au
काढा
मापदड
विवचन
उदासीनता
##किब
अवहल
पटरियो
##परणा
भादरपद
lad
रोकत
wal
लडगी
महालकषमी
करोल
कयट
अधाधध
वरजिन
रलियो
नसो
##डविलस
कहलान
##रावली
इयर
नौकरशाही
तोडी
एसएन
##पारा
बरॉन
शाबदिक
जनजातियो
sd
##ञच
नप
मदरण
लाव
मजीठिया
थयो
परोटकशन
math
१९२
दिगगजो
फिजिकल
कारखानो
990
years
सोरन
सकरामक
सविम
अजिक
मदरसा
दवास
शमप
chhattisgarh
दिखाय
फरॉड
वजर
##कडी
आपशन
बचात
132
आतमसात
तपत
बसर
इसरा
कारल
दीकष
इमली
लसबियन
178
आकसी
मधावी
३१
सपरग
गरभधारण
सलिबरिटी
##यमिनियम
दतय
गील
stor
अजना
बटिग
हबीब
आधन
गवार
कावरी
थानदार
शकील
सबतो
सममलनो
रामबाण
pk
उडात
चटटानो
buy
लिम
##टीएस
अगद
टकनी
खडवा
धाधली
हान
इसानी
यहदियो
gad
डकत
निकोल
##ledge
साकत
लापरवाह
##ze
नामवर
china
ऑटोमोबाइल
bud
नामाकित
सशी
##कटरस
बमबई
विषाकत
साखयिकी
##गियो
menu
आनवाल
याम
सनग
ऑनर
##यड
##डीन
दबाया
साड
##टाण
सवरणिम
शिशओ
##yaps
1961
1955
##vir
निभाना
कटाकष
##कलिन
नवीकरण
एथलटिकस
अनिवारयता
##ет
राजपर
रतलाम
##kan
##ym
मौदरिक
गोडा
##कमिग
पारषदो
पोसटिग
वायमडल
topyaps
एडवचर
कडिडट
एनसीपी
आलावा
pics
jhar
कनिषठ
111
परचम
uk
मलो
अवहलना
##रार
जिग
रविदास
boss
माइल
शिरोमणि
320
##तविक
##eek
घोडो
चाम
हिग
these
rank
मछलिया
सारवभौमिक
rub
value
मरज
मोटाई
सरकलर
##ax
सरहद
bengal
हवान
##ऊस
होलिका
याददाशत
एयरवज
facts
सहला
123
ओलिपिक
cash
सीएचसी
family
##आरएल
उतरगी
अपकमिग
dar
राजकोष
मडकर
हनीपरीत
शरीसत
कमीज
एली
२०११
तजाब
अथक
##aste
होरडिग
दलाई
अमरो
वारिस
सिलिकॉन
मसद
request
आसर
##चस
ठोकर
शारट
##कषतरो
वफादार
नना
अलसी
hyp
##तमी
es
10th
मखयत
जनरटर
डयरडविलस
##52
सातविक
register
तरो
वालव
##मशन
##rom
दरशात
हलवा
रामदास
नविगशन
फडरर
अखडता
कषित
सरकषाकरमियो
पोलियो
eu
अलब
दबगो
लरनिग
##osc
समाचारो
सरमनी
जलियन
पीलीभीत
exper
गससाए
ताजी
सकाई
##did
मडली
बाधाए
organ
डिसटरीब
औकात
##यानद
हाथरस
टरिकस
##ро
##ानतरगत
##ोजहद
रामगोपाल
नागारजन
नॉलज
ममताज
पचा
दवाब
##चालयो
धरमनिरपकषता
सासो
लिगा
सपीडित
मानदडो
ठिठ
तषार
##pf
निरदशानसार
सकॉटलड
6000
##ger
पीएमओ
##जीकयटिव
जए
##71
a¤¬
center
महाशिवरातरि
जदा
पारलर
उपनयासो
mach
छपन
उदयमो
##एमएल
##लाब
सरपराइज
##ोगन
सवरो
सहिषणता
##ding
तरको
बदखल
सटचय
टलिकॉम
तगल
धनजय
रौशन
iv
यआई
वयथा
डिजिट
कालाधन
उपनगरीय
एश
ओत
फडस
रजर
शील
questions
12th
project
अडमान
दिखावा
बिसमिल
##less
चतड
लियोनी
admit
एमएएच
महिषासर
टटकर
uttarakhand
गरीषमक
दरकार
जरसी
propert
फबर
बठती
चिततौडगढ
मललिका
ऊना
परमोट
कयबा
their
परातो
##नामो
मिसज
राधशयाम
उठानी
परयागराज
##ॉजिट
इसलिन
उततरार
सिकयरिटी
२०१७
##िवशिक
कटारिया
सरीख
अलगाववादी
ओडी
पलवा
विघटन
एकसल
रजिश
फिकसड
अठारह
तरजीह
नाही
जायदाद
एहसान
ऑलराउडर
सवरोजगार
जनपदो
139
एमजी
##ora
मिसतरी
नइ
कोडा
काद
कशलस
lag
खफा
सनाय
उदर
गवान
##होर
निद
##िपति
लीज
display
खानी
वण
शिवकमार
hosting
cup
##che
हवाए
1940
##inary
शौचालयो
वारदातो
पछो
दडित
##िपाल
##enn
commission
गसो
विलीन
अजञय
शालीन
सफाया
##टिकन
अबबा
समबनधो
५००
##ियारी
इलकशन
ah
##गोर
जनजीवन
लौकी
kaip
##वासा
##िवड
घरानो
a¤µ
##बिलिटी
petrol
उतकषटता
ओरल
अभिनताओ
leg
##मणडल
सतयापित
सअ
मनाना
सोहन
धमन
परिषकत
##nataka
kaipchar
चपल
अलाउददीन
टोटक
एनएम
इदरा
टिम
७८
##उद
बागशवर
pain
फिरोजाबाद
पठन
निमब
##िफाई
कीटो
##ायज
अनमोदित
चलाती
अवसथित
##शलम
ऐशवरय
flip
शादियो
समागम
##चट
##ॉटस
शभम
अभिवादन
1954
try
ऊर
##ियोगरा
##एआई
##ियनो
वरकर
document
##ोगरीब
##ताई
गोलफ
knowledge
वडो
सिथ
बचगा
वनवास
halchal
फोरबस
pakistan
##za
इलकटरानिक
बताऊ
एनजीटी
##फिन
##परष
समरसता
सकरीनकासट
अगनिहो
##fa
##ets
मधस
plat
इफरासटरकचर
खशनमा
नाप
फाइलस
पनीत
गजा
अमीरो
##cam
कबतर
उभरती
बदनामी
linux
कइ
गणगान
सिलबस
दागी
कडवा
रढिवादी
परगट
टॉपर
तराई
wid
##सिटी
हीट
परबधित
चासलर
birthday
शदधि
शरीग
जददोजहद
परमा
##oug
##cept
अलकार
दीरघा
सगमरमर
mas
दपट
##विवाह
सहम
dip
राजपतो
कवत
तरकस
##लोजी
सतरा
६०
रलगाडी
सवानिवतति
mobiles
सलिबरट
department
##iya
##शिव
नीलक
##लीकरण
आरआरबी
निकलगा
##गौडा
##मचछ
फिरन
उदगम
भागकर
मॉब
खिचाव
डोल
वीरभदर
कलिटन
तालिया
ठल
बचारी
अभिर
आधारशिला
भडा
परिहार
टीएमसी
1080
मालकिन
##ны
अजीबोगरीब
रिमस
विनाशकारी
फिक
गगोतरी
बलदव
##गणो
चबन
दिवालिया
south
##come
##दनिया
विदित
सटीमीटर
cd
किरन
शालिनी
सगरहण
rash
अघोषित
117
डोम
होशगाबाद
तफानी
घसीट
एअर
भात
सिडरोम
मारिया
हारकर
##कानी
उललिखित
हनीमन
अदशा
पराद
बनदर
सटिकर
आरिफ
सिलक
राजसमद
exc
##गनी
##परासी
agar
सीरिज
सबमिट
पनरी
शोल
##नागर
अबाला
अतरग
गिटार
इसटर
भरषटा
भीलवाडा
इति
सीवान
उपनाम
जबानी
दशहर
पकषपात
jharkhand
##वति
फवरट
##ोदय
रोमान
राधाकषणन
टोकन
##जएला
रबल
करीज
वयापम
them
नगटिव
720
ga
एमएसपी
बरदर
एचआर
उतरना
##ney
minister
बरायन
सकष
समारटफोनस
virt
जघन
रगी
चचियो
फटपाथ
सौमय
सीपीएम
वगरा
वसतरो
सॉस
bach
##पथिक
शरारती
रिवाजो
विवकाननद
भाषाई
##rd
शलदर
साबत
अनचाह
rest
##ief
असतषट
ll
lik
महाविदयालयो
##भकति
##enge
कमरशियल
विचाराधीन
आरोपितो
औपनिवशिक
कटिग
ईस
शोज
बिमारी
delete
परलो
चलह
सफारी
##हता
यगम
##सरग
##adm
सकवायर
##िवरी
##जञता
पीडीऍफ
चिपस
radi
इव
##adu
##ॉब
##सायो
राषटरभाषा
stand
a¤¤
login
laptop
नीमच
अमला
पनरगठन
थयोरी
जगी
स0
##cd
काणड
##ino
रगदारी
चौकसी
बतरा
खरीदारो
nam
##योगिक
बदसल
नागौर
याग
कटनीति
बायी
एनए
study
परयवकषक
अफर
राइस
##rec
मकम
##cha
डॉकयमट
सतरह
##रोड
बनाव
बकाब
काबिलियत
फलोरिडा
##ier
जफ
सानि
इमान
##दयाल
chand
without
खरद
पटाखा
अखाड
तयबा
हामी
गिरजा
दवित
लादन
मधयाहन
settings
great
चहत
परथ
राषटरपिता
मगरमचछ
पोजिशन
सियार
डच
##gu
मतरि
##vedic
हतयाओ
पलला
सतबध
पढात
बगन
##माइड
मखबिर
जगजीत
चलजरस
रगयल
विहिप
eb
नलक
सलॉट
हिरानी
घना
सिवान
माही
नजम
गरगो
वडर
##यानसार
फसान
आहट
कषितिज
##विता
जनार
जनकपर
148
कटीन
##ender
entertain
##मया
लाउड
नीता
##िजात
कसटरकशन
झाकी
वीरवार
assist
##टीज
##arta
हताहत
upayog
काक
चकानी
1945
नबब
##एनएकस
दौडत
अलारम
बनाएगा
मिशनरी
दायितवो
पपीता
आदिम
विदरोहियो
##lab
##सीमा
हाहा
उठाती
##eth
मिता
style
२०१०
यशपाल
##cs
सिपल
cy
##ायनो
खरब
डालग
वनजएला
##abr
पालना
शिवरातरि
बिताना
अजर
एहि
धनो
फराई
बरिकस
डरसिग
##ोटो
##एसएफ
एकसपोरट
एकदसर
122
समसाम
116
deb
रिजवी
karnataka
समतल
जलाशय
##kart
##by
अरघय
एटा
फजी
कीटाण
शरषठता
##ॉजिकल
##ारीकरण
भोलनाथ
##माचार
गरथि
इसटट
मॉरी
सरह
##मनि
विनती
माततव
210
होमगारड
चबकीय
पलवामा
om
ईपीएफ
शिपिग
##कक
desi
##डरिग
तटसथ
चिली
हवस
##ision
राजनित
छानकर
वॉटसऐप
इनसटॉल
##fore
बहराषटरीय
निपटारा
सोचिय
साइकल
##ोडिया
पनरजनम
सिघवी
औलाद
शिवानी
गवाहो
##पिका
जाज
खाट
सबदार
thr
##हण
फिलमफयर
डिविल
यरिया
खोजी
notes
##मोहक
##ॉलयशन
दिनकर
##aning
चदरबाब
simple
उरवर
वकयम
बदसलकी
गरिल
भोजपर
vr
पनपन
निगमो
समया
खलबली
incl
message
बिछा
बाजवा
138
सचिवो
डायना
##दाह
सहभागी
गलौज
फॉकस
##टीपी
अवनी
घोडी
##ль
परबधको
बोलचाल
अखतियार
सतयदर
area
ठडक
सीई
मसौदा
dm
पलाम
##भावन
नरगिस
आधरपरदश
lab
sil
दली
३४
यनिवरसल
वडोदरा
##bar
##सटरी
##erial
वादय
##ोरियम
##ison
पनरा
##eter
फरडली
मटन
वसलन
छाछ
डिपॉजिट
##ियॉ
##ours
182
kundali
अरशी
रिकॉरडस
employ
परतो
129
रखाए
kuch
##ोडा
माखन
लोअर
##2018
sexy
रगलर
अजिकय
##चछिक
बहपर
अतयाचारो
एकसपीर
फॉल
##टकी
##ौडी
राजनीती
जमना
डायरिया
rese
##ashi
इककी
##ाईन
सारणी
दानो
निरया
रोधी
##निहाल
regist
##वाचक
मिडकप
##ashtra
कषीण
##ique
##सलड
लपक
मनतरी
yadav
oil
सपरद
मगला
##हरो
ढीली
चचर
किवद
डिबबा
रोमियो
selfie
##हारण
fix
भइया
हणड
error
##करिपशन
कवय
वानी
सारथ
आवशयकत
सलाखो
पलवल
हरिवश
##asa
175
दानव
ion
121
1963
सारस
##iance
##porn
करनवाली
हिचक
##ॉजिसट
मिलीगराम
1946
puja
##मकर
वरकश
वयवसायो
##ियकत
दोह
##आईएल
आधनिकीकरण
dun
ईलाज
space
परोजकटस
चिटठ
cod
चाहो
अररिया
##िलियन
परतयर
exclus
उपजिला
लिविग
led
नालो
gang
नारो
पातरा
मापा
बरतनो
##bers
बचती
##idd
एडरायड
यनतर
विभागा
एना
आईना
परौढ
##ariya
छिट
महामारी
डीप
अडचन
मयन
कामा
विसम
सिघल
भरामक
जबर
##eep
##िडीह
फिलिसतीन
ऑट
मसजर
मोहताज
लिपिक
कागजी
cat
##गरट
एसएचओ
बराइयो
वोलट
नौकरानी
km
pack
feed
differ
cancer
बदरो
थाय
फाग
नगदी
छतरपति
कटनीतिक
ओवल
हl
सकरब
कजयमर
मिलीमीटर
आवर
मणडी
मातभमि
एसट
सोह
परमखो
अघ
सकलपना
san
आषा
बोलट
कमपनिया
चग
मनपरी
टाइपिग
##मगध
अतिस
मसलस
एडजसट
mail
चिकना
फलाव
समलगिकता
##gin
##नना
##61
सकमा
कराएगी
rom
भगवद
##बसटर
डिविलियरस
खडो
कराइ
विभी
##एमपी
equ
opt
याज
land
##बसत
जबस
शोहरत
सपरम
शिरडी
फिलीपीस
जघनय
##pg
सदरी
जसलीन
बाईपास
lah
nir
चीत
##एफआई
बिडला
सययद
नकसलवाद
रिएकशन
परहरी
इमतियाज
##बियो
##सथली
आनवश
वॉट
अजगर
परशिकषक
##साल
सतकार
##leas
145
बरगद
फलती
कटरा
अटला
एमबीबीएस
answer
army
research
अपरव
##यकला
they
तिरस
परिलकषित
उदहारण
रियायत
अधिकाधिक
lucknow
##नीति
नोटबक
ठहराव
हमाय
bhag
अवधारणाओ
बरॉडबड
एनपी
##िडटस
शिददत
##ten
मातरम
शरीनिवास
ढह
154
third
यति
वतति
परणय
अनिरदध
हपट
पदयातरा
सवचछिक
असतलन
जारज
फौ
##ler
परजट
##साही
गरदास
##मयी
##thing
डबकी
नवीनीकरण
कलसटर
चौड
वरकिग
सानिधय
एकसपरटस
मीनार
मनियो
चबल
##शको
तकदीर
गिरिडीह
वसीयत
साहा
झकझोर
kash
##विहीन
रिफड
अनमडल
कछक
बोरी
बखौफ
अभिलाषा
दहल
सहकरमी
महावर
ईसटर
##पतली
फरन
##मासटर
डीआर
डिपल
order
oppo
saath
links
##भाति
##सटरियल
teacher
समपर
सनियोजित
सटालिन
published
ऐल
##то
सहाग
chang
फरीद
series
असवधानिक
send
धतरा
साया
1600
तगडा
टकरान
तरगो
सथरा
अतएव
एगरीकलचर
बरबरता
अबकी
छपाई
##odi
सिड
धरवीकरण
कपाट
##िनटर
insp
विजदर
सभालत
ऐपलिकशन
कजर
नाइक
##मनद
रायड
भजल
परतगाली
##ोय
##पटन
कारतिकय
##परिणाम
चाइनीज
##मिति
बीना
सवाइन
समझौतो
##gest
फॉरमला
आरटिफ
शवसन
##ातो
बरमा
rob
##टाउन
गलशन
तोहफ
बिह
पजीपतियो
वॉलयम
भणडार
second
सजीत
तारीखो
विरोधाभास
##uts
धजजिया
झाम
##परसन
रामकमार
affili
धत
एडीजी
##बदधि
provide
##lim
कषठ
गलमरस
लॉनचिग
##ension
नकाब
टीडीपी
झाडियो
cumshot
कलकल
जटिलता
रितिक
रहमत
कयामत
परसिद
करीडा
final
mm
फॉरवरड
एकटिविटी
तपति
राजगढ
##ety
indust
गदर
कायल
कोना
रिपबलिक
सटटा
दवीपो
मटोल
सजीवनी
##बाध
##ii
tran
जागरत
सीनट
समझाना
निपपल
रहसयमयी
gor
लाभाश
शकतिपीठ
शिकषामितर
वॉटसएप
करवाता
गडब
official
##पई
पीतल
सचय
रसायनो
हताशा
धौल
##mir
उलमा
रमण
##बाजार
हापड
कदापि
##मनगर
सविफट
औस
घनी
ढककन
रिकश
बराज
##ns
आजमी
बरम
अदायगी
यरशलम
##ja
तबका
पागलपन
रवनय
##ots
##खियो
शिलपी
कददावर
flipkart
शिब
कषटो
साईकिल
कलियर
मतभ
लइस
##वता
जहरीला
विसथापन
##एलए
विदयापीठ
blood
होनवाल
अलफ
ang
थलग
ml
##cast
माइड
चिकितसकीय
##oud
अशरफ
##िकषित
जडता
रगा
कारडियो
अमरी
इचछाशकति
##कडा
मॉडरन
##पजा
मातम
योर
अरपण
113
नाजायज
माहवारी
भलन
##सपस
बाउ
बोलबाला
websites
एनालिट
168
##पराय
आण
कहासनी
लकजरी
अपशबद
नटवर
marri
उफान
गलियार
विदशियो
वयवधान
पपीत
नशीली
hom
रसिग
जनारदन
डबी
वाइन
आनदी
कॉरिडोर
एमज
##गिरह
##कलसिव
perform
पररणादायक
##अरस
महबब
भिगोकर
नशन
आसतीन
##परापत
पीडबलयडी
हिरो
मरतिक
बोलरो
करियाए
ओमगा
गरनड
ठगा
पराली
19वी
##यासपद
want
उतपात
वोह
कॉनसटबल
ओवन
रचय
समतियो
ठहा
##छत
##ॉनिक
ord
चमबर
##yn
##ानतो
कोख
जलाल
एवरसट
##वनतपरम
##anchi
entertainment
##मठ
##कशस
सरराफा
miss
डश
जाटो
महानिरीकषक
चकरवात
##ोनट
महासो
ओमान
सीग
जबाव
सालगिरह
चपरासी
##यापत
अतराषटरीय
mor
गनद
लकस
कलभषण
खिलाया
heart
अधिसचित
लफ
विकराल
lal
चनदरशखर
शोपिया
महानता
##iki
अभियोग
##ोलयशन
ओकरा
सीमात
मजार
##दनगर
रमाल
compet
कहगी
सकॉलरशिप
kerala
खोजना
समची
##छावर
शोधन
कठोरता
energy
चय
काई
सीखी
परायोगिक
पारसी
डीय
##aveyar
transfer
##ection
लगानी
जबा
inde
डाकघर
बानो
रीय
साबर
ककीज
##mah
1100
निभाती
निरयातक
परिपतर
दाब
आलसय
टोकरी
अनिशचितता
astrolog
शरबत
##ानाबाद
नाचन
164
खलील
##िदीन
अनवादित
तहर
सनानियो
सातवना
डरान
print
quick
टालन
अकरित
अनराधा
dat
own
153
सगीन
सहतमद
करफय
काकर
दरशान
अकषत
asian
very
कारयपालक
##oda
limited
##हवा
निरर
डॉग
##दयमन
bhoj
मॉरीशस
टाय
सरभि
कलकरणी
मोति
परतिषठानो
girls
mom
##आप
##ida
कथानक
विभागाधयकष
##मारट
सरकषाकरमी
require
ऑसट
बबाक
यनस
बबबर
पिर
कनवर
परदरशनकारी
हासयासपद
कपट
नरमी
दामपतय
अभिजीत
कालातर
पलाजा
नायब
झाला
पलटो
##मबना
तरन
फिलमा
##ersfor
आईएसआईएस
इततफाक
घिरी
##िटा
गहा
##दशमी
किसमो
खडित
बाधक
बिरसा
विदरभ
वाडरा
wish
घमान
झिलली
जमीनो
कमपस
बचलर
खामियो
glo
घनिषठ
मसीहा
ताडव
असामाजिक
बिशप
सभासद
रचयिता
घडिया
147
शयरिग
गरीषमकालीन
आवशयकतानसार
##बरिड
##िटिव
बतला
इटीरियर
ऑकसफोरड
टलस
remedi
कौसिल
राजनितिक
आहा
दवकी
दीकषात
अमक
##गया
मलजिम
134
एलयमिनियम
बकाय
रोटरी
जहीर
माणिक
अवतरित
निरतरता
विचरण
cn
परोल
##ling
##बॉ
इडिगो
आलीशान
सचरी
सारथकता
दारा
फयल
परणत
north
liv
कमोड
दसतखत
रीडिग
अनशासित
अबर
रामचरित
एडवाइ
तिरवनतपरम
विशालकाय
परतिकरियाए
नॉरमल
उपस
बालन
दलाली
चिताए
जिजञास
ऑपटिकल
कमोबश
college
उतपर
बजोड
मनयअल
essay
परिचरचा
बहला
दलदल
bana
जडर
##ии
रिवाइ
असरकषा
काउसिलिग
डिलिवरी
सकच
कषधा
तरकसगत
सवटर
memory
सिगनचर
खसता
##ior
अलफा
जवाइट
##hy
##पम
सरचनाओ
कॉमडियन
फिजी
कलिनिक
funny
##पलाट
वधानिक
रकना
मताधिकार
कतरा
गालो
बीएल
रहम
##रोसिस
books
असहिषणता
इनामी
##िसटस
##emb
against
##ाइलो
निशात
सबा
पाओग
टरडो
##ऑकसाइड
##पसट
मोदीजी
##ought
##िडस
typ
जॉरडन
गरतवाकर
अधरम
जसन
##गराह
जडना
उपमहादवीप
फीमल
धनवान
पठार
फलाईओवर
होनहार
सलानियो
काशीराम
मगी
जनत
सतक
धोए
पिकनिक
मजम
ठहरात
instit
करिएटिव
कोलाज
##पाडा
हाऊस
##चारयो
कलहाडी
टीसपन
तसल
डीक
सटरिप
kal
नकी
भदो
सिद
छिदवाडा
पिजर
नौस
जडत
महराजगज
anim
##ems
बादरा
माताजी
सिटीज
ऑकसाइड
जोको
पछती
मखी
##ouch
banking
फरना
बोरिग
सापरदायिकता
फिरत
हिफ
मॉसको
ru
##िदम
औषधियो
परिपकवता
मढक
भटनागर
आहति
थिक
अममी
बतिया
तटो
करिट
##िलय
बीसवी
##यीकरण
टाइटन
vac
४५
शोधकरता
सकसस
रोती
तरिवणी
भिवानी
सदपयोग
जाचन
##order
thank
छोडता
##दानी
परतिबनध
रोकी
हितषी
बमब
एनालॉग
दहाड
##ка
मदानो
मशाल
वनपलस
वबसाइटस
va
##गडा
##ит
कोसो
पनरस
पिराम
आपदाओ
जहानाबाद
into
वरकशॉप
##100
##तरफा
बाउड
चमब
bahut
एमओय
पाताल
##ero
उपनदर
गचछ
##खरी
वयभि
158
rahul
फाज
why
कासिम
अवशोषित
उकसा
निषपादित
परॉड
सबजकट
ततपरता
लढक
##शकिल
एसए
दोसताना
मासटरस
हाइडर
loan
मानवाधिकारो
maharashtra
हडर
##योन
टॉरक
ललक
सोचग
platform
गतिशीलता
मजाहिदीन
##किक
बहोशी
virtual
नजीर
तकरार
जयसिह
घटता
कायसथ
सकरी
तालीम
sites
भगर
than
##chan
##une
yeh
अधिशासी
##hya
कोरियोगरा
179
सोलो
परमाणीकरण
लिटर
जीविका
death
##शिलप
टरिबयनल
kesari
दखगा
दषपरिणाम
एकादश
इडीज
बालीवड
परणकालिक
टीक
३६
##ियमन
बखान
तरिप
इनसल
रसलिग
धमकिया
candid
ऊतको
technical
##टिकस
##ars
जॉनी
करातिकारियो
दहला
कारयानवित
डबब
गफाओ
##rome
बीफ
##itch
जिददी
यहॉ
सटिक
टीना
1958
सहो
समबोधन
नियमन
बाबाओ
तिजोरी
exclusive
जमन
घोषणाए
ranchi
##कलटी
अजवाइन
##ङग
सबम
##वानवित
मोहिनी
शादिया
ताश
आवदनो
एचटी
शयो
एकसकलसिव
सशीला
अपराहन
अनवादक
ततवाधान
cbse
भडकाऊ
तोर
अषटम
उबट
नकषतरो
परसाधन
बाउल
आवशयकताए
परथाओ
पिरो
परबनधन
रिसाव
##पीओ
दासतान
रवीना
जटाए
xp
अवधी
सतपाल
राहगी
सलतन
mur
ring
ढलाई
##रावसथा
जादा
जनित
##कलम
पतरिकाए
मनमट
##िकापर
गायकी
##मोट
##uv
155
##ifal
सदाबहार
फडरल
करानी
जीवनकाल
परशसति
अरबन
loss
मटो
निरदशिका
बागडोर
आरयो
टकनो
##raw
दवगौडा
रखाव
राही
फलाया
tel
##िबा
वीरा
गोलकीपर
info
याकब
फिरौती
रामलाल
##ॉनट
बतर
वयक
कारनाम
पहचाती
टसटो
मसीही
एकाध
चमतकारिक
शहाबददीन
hack
low
blue
शमशर
side
##kin
कापी
green
शरारत
रोडा
एयरकराफट
##घरा
एजन
शिन
कानहा
कमरन
परामी
asp
दबोचा
मनमटाव
कडिया
इसराई
फरिश
मागना
##ott
अशलीलता
vibhag
खिलाए
एमक
phys
नदार
करबान
ककड
रोमाचित
रोटिया
cookies
राजपाल
बरट
गमनाम
अफरीदी
##उदी
तकिया
सटटमट
attack
वकस
इडसटरियल
मवशियो
##पषठ
बीट
जोडती
enc
फतहाबाद
गोपालगज
मानसी
##ावि
कनक
विषल
मरोड
treatment
शरीगगानगर
tur
कसिल
लोज
एकसिस
२००९
fund
मोतीलाल
remedies
420
महामह
परतिमाओ
चढत
relation
रगन
पछाड
amb
झररिया
अनभि
##शीय
दापतय
गरतवाकरषण
मछआरो
##दवारा
फाउडर
rashifal
sir
काटी
जनसा
जनवादी
राइडरस
tab
##राजन
appro
फलगशिप
wall
हनमानगढ
बाजीराव
सवायततता
घलन
फहड
##गनिक
कवॉल
aw
सलिप
##थापना
##राहो
सतयमव
gem
जालौन
एकाधिक
राशी
दषटिगत
coll
तौबा
##ren
सिवनी
##ोललास
सलबर
डायट
पनरजीवित
##ौसी
##िबधीय
अटार
पिकचरस
कमस
##आरसीटीसी
समपादन
मनचसटर
शिलालख
निषठ
##यकता
बरसी
होसटिग
समभोग
अगी
दवदव
२०१६
लिकविड
सिमरन
ach
पढग
सदनो
नदान
दालो
उपजाऊ
साकतिक
##वरलड
दिलवान
अनठ
कारया
रथयातरा
परतिलिपि
चकाना
रनौत
विषाण
बराडी
सशोभित
कोरी
पीआर
बदहाली
तलो
1953
nb
सापो
वयवसथाए
बिनदओ
गिदध
##कटिक
भा०
लटकर
कमहार
रतना
बबन
भकम
वशा
विभकत
##शाम
##धिव
मोहनलाल
##oy
बोरा
christ
सविमिग
gar
на
कारपट
शलटर
डराईवर
आसीन
चख
##vak
narendra
चभ
##कसर
उपक
करियानवित
##ोगलो
मीडियाकरमियो
मकरो
साच
जीटी
नीट
##oscope
समाजिक
शिकषाओ
##राइटिस
सोए
1959
सतयता
करानतिकारी
उतसाही
सोय
मडरिड
अडो
पराठ
विकति
टरस
मतभदो
अउ
पितामह
अकषरा
असलम
मिलाय
करिकटरो
पपरस
रिजॉलयशन
bang
दिलवा
dies
##वचन
sakte
लिफाफ
जागीर
21वी
मिताली
अलसर
गडढा
विशिषटता
जनाधार
##ла
##ोहण
फराह
##वमी
अपोलो
शबाना
local
कालिया
white
पीवीसी
दाहिनी
समपदा
रिसप
आकाकषाओ
पनडबबी
अधो
लकश
उदाहरणो
नाकामी
लगाओ
फलाना
रियाज
चान
गौरवशाली
कोठरी
circ
समाजो
टॉक
##aa
कारयसमिति
पदभार
एयरफोरस
पतथरबाजी
मटरियल
ndtv
वयकतिक
गडागरदी
अभिशा
एडमिनिसटरशन
निररथक
विधानसभाओ
बमानी
वयो
engineer
विशषण
परछ
राजकोषीय
##डलल
##ract
कारमिको
मआयना
विपर
लौड
वितरक
तचछ
लायी
वरिफिकशन
##कलव
लीबिया
जामिया
मनमोहक
बासी
बाहलय
आईएसओ
t20
चकत
मधा
##ओम
##200
परसी
फसन
असमय
तीरथयातरियो
##बलडन
पशावर
136
आलसी
कॉमपकट
अनिशचितकालीन
महाभियोग
तारिक
कलस
remove
अनहोनी
मोतिहारी
एटीबायोटिक
159
##urance
auto
चिडियाघर
हाइट
हिचकि
रपाणी
वनदावन
सलतनत
maj
ऊचाइयो
बाकस
मजिक
कोरबा
कॉरन
जनमदिवस
सरबिया
##िमानी
पललवी
templ
jam
हरर
अभिग
टरिक
बतहा
भटटो
kahabr
अइ
##०००
मिग
##पाशा
साझदार
सटपस
सदरभो
तडका
kn
##किस
##डलस
एफएम
cryptoc
##िएसटर
नौटकी
##बलाइट
उरमिला
परादशिक
##भरा
आधयातमिकता
##जमा
करतत
दावदारो
सभालना
पारिसथितिकी
अगनिहोतरी
वदा
गतथी
मननत
सलबस
खिडकियो
ईसाइयो
मवशी
##लणड
नापसद
चारटरड
ढलान
सवदी
उडत
उलझा
der
जईई
फलदायी
सामयिक
एलआईसी
##पतरो
इरादो
##गिरि
उचाई
धस
a¤¯
ऑसटरिया
sug
धडलल
##89
डरता
एमटी
गौरवानवित
हसराज
मालिकाना
हाशमी
1st
सरकष
निदरा
पोलिग
मौरया
एनजॉय
चालाकी
ऐतराज
बाघो
मजलिस
परौदयोगिकियो
ni
बालकनी
थरिलर
आगर
रवा
##लियन
##ऽऽ
mix
सराब
##zi
हतयाए
कलीनर
##izen
हलफनामा
##उणड
अपरयापत
कराएगा
नदानिक
दई
मजन
कारणवश
गलाल
मनाय
लकषमीबाई
नडाल
वहीकल
मासको
allah
कलिग
विनयास
जीवातमा
affiliate
तसलली
योगनदर
परोसा
सममानजनक
cryptocurr
अकषा
उबालकर
cross
root
टयबलाइट
जाऊगी
कती
गथ
कमशॉट
निकटता
profess
लसन
अनयतर
चिकितसीय
रीयल
सरमा
हिलस
##vas
कामगारो
नहवाल
kiya
बासवाडा
कइल
नबरो
उतकरष
पराची
##बह
परोडयस
झझन
एकम
##कलर
चननी
127
सगन
सपीच
पॉलिश
##दही
उठाएग
असवसथ
##ईएस
बताइय
कारययोजना
ससमाचार
format
बअ
सटॉल
रपिया
दीपति
बिसकट
इबरा
##gs
##band
निडर
लाघ
कडवी
जझना
assistant
थार
ममबर
नायाब
मललिक
##बाडा
dv
सौदो
मासाह
फसाया
ई०
किशोरावसथा
कॉसमटिक
परतयरपण
##फाइ
नववरष
उचचसतरीय
पॉकट
भाजपाई
आइलड
साराश
बरहमचरय
पॉलिएसटर
रखाओ
##धरमी
सॉरी
विडमबना
फिनलड
खटखटाया
बानी
##ql
उपदरव
बिकिनी
लॉज
##शचित
##यमो
दकषिणपथी
१९१
horoscope
नजीब
किशम
सतयार
##जोब
महामहिम
##ामत
##टलस
रशमी
पसर
##िसम
बनवाए
निरमम
गढा
अमीन
ऊषमा
##वनिया
समझग
करमिक
अतरजातीय
हिफाजत
सामती
224
दतिया
वसला
खोजबीन
east
अगनिश
एनएसजी
इणटर
हगरी
बाका
रफरी
फबरिक
परगा
होई
यहनना
नीना
ताता
बालकषण
एलकस
खोए
flash
2nd
सखान
asia
हपटाइटिस
फकत
लबन
prime
होलडर
एएमय
सवीट
बिखरा
सकॉट
किरकि
poll
रागिनी
टाक
hr
एजी
जाक
सारण
नसरगिक
index
दरर
निगटिव
टविसट
परवासियो
##माग
सपला
गोरखनाथ
बोड
समीकषक
डिविजन
अपकषाओ
ठहरान
एनीमिया
बिका
मघा
##चछाद
पीसीएस
que
निरकश
राषटरिय
syn
टविकल
ipad
शिषटाचार
lock
1931
##थनगर
##ically
इसराएल
विधिया
270
भटकत
टोटल
##आयामी
##जञानी
दासी
चाप
जसटिन
snap
बीटक
वषणो
एलसीडी
jy
##ting
गलश
गणितीय
एमाल
पमाना
लॉगिन
अनतनाग
पिलल
अधारित
इफतार
टढी
##टकर
हील
सिदधानतो
सखो
topic
##ॉरनिग
वलादि
एकसपीरियस
##val
सवावल
रातभर
भतीजा
अभिशाप
avi
सगधित
कटघर
आतिथय
dhan
समद
before
##bb
पाटन
अजञानता
बिपिन
ओशो
##सरट
अननपरणा
##फरो
##दवा
मलबा
दवराज
झझट
एरो
pregn
शरणिया
तरिशल
मनयफकचरिग
##hn
विनियमन
आतमीयता
अनामिका
मानिए
अनसन
मलिन
मालयार
अपरिहार
हाशिए
material
कशा
कारवा
आजमान
एमएससी
pen
रान
कारति
समझाए
खाका
gif
मखया
डॉ0
हसना
झलत
lahariya
अचर
##पाड
सडविच
मनजिग
मरहम
सहसा
समारोहो
##ious
मॉम
चकका
एडिटिग
##ततम
राण
दराचार
##िशियन
10व
वारमिग
भोसल
नकसट
नदीम
फतवा
सायना
काटज
पीटी
sound
गिरना
छीनन
lif
आरदर
टरर
बकौल
track
घमकर
खखार
पखो
एकाकी
lg
डमर
##वकष
सवात
सनायी
##एलआर
इकाइया
सगण
जनमोतसव
शकस
##लज
खोखला
मसाफिर
राजया
मिनिसटरी
meet
भदौरिया
बिगडती
फहराया
चिम
##ek
##खनन
##उगा
दशदरोही
सतानो
विशवामितर
वरगीय
बदतमी
वरषीया
अलकोहल
कॉटन
परजाततर
##45
##पोट
बरहमपतर
हरषोललास
टाईम
उबरन
##ानति
निराधार
झगगी
धना
समयक
शरया
बीक
##बीज
##raft
सोलन
माधो
इजिनियर
मालयारपण
##अपन
परवतो
कथय
अवाम
career
सजजा
टकनॉल
सरबजीत
कशवाह
present
cert
ghar
मधयसथता
उडानो
डीएमक
बगलादश
नच
जलिया
connection
sin
लगवान
इडो
साफट
सिकड
youtu
नककाशी
जयोतिरलिग
३३
ककषाए
छकको
पीपीपी
वजी
शरीधर
अभिक
धमका
यजी
बगना
आलाकमान
##सीएल
ऑबजकट
improve
तख
##awei
औचक
एकसाइज
कहिए
एकाधिकार
##a¥a¤°
मॉनिटरिग
law
पौल
##ان
ईनाम
रठ
रबड
फहरिसत
कोचर
अमरोहा
इलिया
जनि
एसजी
जाटव
बथो
##लाक
परतिफल
iit
थरो
##िआ
##कोप
##dc
ताबा
मिलाप
परॉफिट
वामन
दीदार
उतारी
5give
तिम
a¤œ
मीटरिक
समीकषाए
##पीएल
पायगी
उजा
##हीर
निरवि
उ0
करवाती
सवयसवी
##opath
तदनसार
यवतिया
जोनल
करीमिया
हॉरर
सरयक
असस
जगद
##धरव
परतिमाए
ris
अपरिपकव
formula
huawei
##वना
##दधन
हलथक
दोहरान
तदए
दप
##hu
चढाकर
लश
इगलणड
mill
बपपा
##vp
कलि
##abhi
##ains
सवारन
आकसीजन
थापा
आनतरिक
##asi
##ako
मटक
कारवाई
बलबल
##बीपी
connect
mantra
##सरप
मसजिग
हवलदार
##दशीय
मारो
परतिन
चाशनी
रणका
दयो
##बीती
आईआरसीटीसी
विनो
जमावडा
##ola
दवश
##फलो
कोबरा
आखयान
small
##ox
सकचित
लगाएग
prot
चितक
समम
बदियो
भरतियो
रिकवसट
तितली
path
##ctc
ऑडिशन
जिता
नब
##son
पराल
मनमान
शीलड
वलर
परलोभन
bhojpuri
##par
provid
##ामाल
##धनष
वटिग
बगनी
माइकरोवव
नाचत
कॉनफिगर
बलला
आवत
मडलो
पडमन
धावा
एएम
##ारन
जलभ
वीरो
कटीर
##47
इचछाए
बजाया
उखड
सिसटर
नितात
एसटर
झाल
पलबक
धरमवीर
बितात
एथली
highlight
वाइड
जनमक
अलला
कनवरट
वासता
उनमख
##oop
##hit
##ानतरिक
चकाचौ
सरताज
हरिटज
नाउ
आईन
नकसानदायक
बाइबिल
बयर
लॉरडस
##होल
पाग
सोता
बिया
##कज
कषको
टरासजडर
अमरा
उभरन
ओकर
कधा
##िगट
दिखाव
151
165
उदारवादी
बारसिल
उडडयन
##इजड
##मनिया
रलिया
वदधावसथा
पकडना
plugin
##भषा
दरशनो
बाबासाहब
घमाव
muk
टिन
लाइटस
शहडोल
device
खीचत
पारटनरशिप
आषाढ
पराकत
सलफर
इडिप
भमिकाए
लहलहान
तोत
बाझ
विशवभर
निकोबार
अगठा
उमस
##मददीन
मडई
विशवासघात
कोप
बोत
चमडी
पोती
परतिकरियाओ
बतहाशा
सजाता
हफता
एयरो
##उमर
बटोरी
##सटरोन
कारीगर
fut
शरमिदगी
लाईट
परतयारोपण
मनाही
##ifa
डिजाइनिग
बारसिलोना
cell
##ли
मानसिह
आगतको
##gp
##med
हरण
नामचीन
अमरत
२००८
मिनरलस
cryptocurrency
खदड
यगा
##डित
##माइल
अखणड
मोमबत
चाई
करौली
घरवाल
सतोतर
दिवयागो
कवन
##दीवारी
करवाय
सगठनातमक
दिखाएग
बॉलिवड
हलथकयर
fol
एविएशन
फरती
पशवा
एनएसई
एतराज
वरा
बठाकर
सवालिया
दरगध
नौसिख
चहा
ढका
चकअप
तयौहारो
puri
आऊ
##sm
131
##गिया
उतखनन
##एसडी
एलगोर
झीलो
धाव
सलट
भाजी
एडिशनल
section
course
मसलाधार
null
टमपलट
point
परगना
कओ
अनकरम
नौवी
रीजनल
##ानकल
किशमिश
##adan
management
एकसपलोरर
नथ
फरीज
ममन
##तरि
फलकस
##िकलस
उपनयासकार
हाशिय
##на
समाजशासतर
##ides
##खोरो
काटो
फारमसी
##जाह
##हिन
बनधन
सथाय
कामकता
अटकलो
##गराहियो
woman
नमरता
शटल
समचा
बिगल
##गतियो
बिपाशा
कामगार
तबब
डिबबो
अभिलखो
वराग
बाउडरी
खिलख
फिनिश
insurance
राहगीरो
gan
आवाजो
राजघाट
लावार
सफरति
jab
निखर
सहकरमियो
निमनानसार
नाईट
कडीशनर
##ाजापर
समयानसार
aadhaar
rup
मतरा
महररम
भटकन
हलीका
बईमानी
चौराहो
कमबरिज
परीत
##डनस
जवलत
नदारद
निभाए
सवदनाओ
156
एफडीआई
ढो
सोफिया
##arty
makeup
गमभीरता
आईडिया
nit
द०
८०
##पर0
280
गरदवार
magaz
चकाचौध
कलला
तिहाड
जसीबी
दीवानगी
profile
बईमान
फदा
##गजार
हरियाणवी
यआन
रहानी
बजल
वारनर
3500
आकाशगगा
गाती
##गनिया
वशभषा
यनिटस
##मोनिया
sakate
पखा
जनद
नरवस
सारथी
एमएसएमई
खोजत
सथापतय
मकममल
ककाल
पतियो
##reme
राकषसो
आआ
आपबीती
##वानद
उदभव
अडडो
ऊब
##तरिया
अशात
##ाशाह
पाइपलाइन
सरकलशन
बवॉयफरड
##ui
##वनदर
सतगर
##वितर
##dp
रिवाइटर
सठी
परदयमन
##वाचित
आयामो
जिममवार
जएनएन
किसानी
हडई
बखशा
सटटबाजी
भक
आपट
चकदर
हवाईअडड
##viron
##यनी
##ined
नौशाद
##works
चालाक
शाजापर
should
महारत
फिरोजपर
الل
human
बइज
मरती
सलिम
गलिया
निरवाण
सरोकारो
हिचकी
dou
##ves
##सीए
अबा
परासगिकता
वीपीएन
country
##ताजा
अपसरा
दिलाती
७०
बिखरी
jour
##42
रायल
तकनीशियन
##arts
हथलियो
many
through
दायी
##कको
##िफिन
मसतफा
दारज
ऊरज
बसरा
जनतातरिक
नहात
पयासी
परामीटर
अपरिहारय
जलभराव
##चाताप
चौपट
##डाई
उपकार
चलहा
उदित
फाइटर
##cent
सजावटी
बॉकसिग
##nb
आरकि
बिकवाली
भागना
धाकड
##समाज
विभति
fit
नतरो
मडियो
##uf
##समति
सीरियस
अविषकार
सिरा
नियोकता
products
एजटो
चडढा
वरणो
गिलानी
desktop
सिकर
player
बिगाडन
location
nh
माकन
भामाशाह
हया
##abet
जिदाबाद
निरबाध
इकलौता
रोता
499
submit
खगडिया
रकस
कीन
अहिर
वॉरनर
##लोस
रजना
लिथ
must
रिपलस
गगवार
कवालीफाई
एला
दमक
##बधी
इलम
जयोतिषा
परतिपदा
सचरण
मारवाडी
सपषटता
साधय
वाकयो
complete
इदरजीत
##ऊऊ
तरिलो
sant
कमनट
हमलोगो
समिता
विजयवरगीय
पहनाकर
फिजल
काफिला
मानिक
फटकर
इबराहीम
सौत
भमधय
एडम
##साहित
अभदरता
हारवरड
##लकम
अनतपर
निखारन
mr
रकता
##ley
मजबरन
आमरण
परगाढ
रति
143
परिचायक
temple
मखौटा
allahabad
अभिभत
तराकी
खजराहो
पची
##थापन
गरइ
amp
लवण
lok
##िडर
##तरिकी
##तमाला
editing
टपो
दिनद
पराता
बरहमचारी
पतनिया
##बारड
हडफोन
यथारथवादी
धौलपर
परदोष
saf
vikalp
निबनध
सफदर
##मलक
डिसचारज
निससदह
गोडस
लॉरड
पजो
##बिस
##पाधयाय
कसतर
सिलकशन
amit
रौद
नियनतरण
डडल
छोडती
stop
भिजवा
transl
##गिज
##जॉब
##भावो
लालजी
एमप
यवी
कपलस
खबिया
बसाया
अगनिवश
##वाइड
अधयकषो
सजीदा
फटाफट
##ताक
##टीशन
टरानस
कौनसा
शीघरता
बदोबसत
महरबान
अलगाववादियो
आफत
मायस
हितगराहियो
असहनीय
जिगन
2030
##ources
##ोननत
##एफएस
mp4
डीसीपी
धमकान
recipes
अकाउ
कीडा
##etry
कषतिपरति
अदालती
जतायी
कवयितरी
##वामी
चमकी
कराउन
आयरविजञान
ढढा
##dr
जानवाल
फलाकर
डमज
आरटिफिशियल
हाइबरिड
imm
२०१५
कतिपय
सोहल
increase
पॉलिटिकल
कीडो
hota
खगो
कोटिग
inn
सिरम
वकरी
##ersh
##लाइजशन
लाइस
हडपप
कसटमरस
मककबाज
फरासिसको
365
सपरभता
धरमातरण
लौकिक
release
साधओ
घणित
नतनयाह
आधि
चया
सीवीसी
मासाहारी
बीएन
परायशचित
sans
कटक
##igation
पिकअप
भकमप
आरओ
सपाइस
नॉम
##ium
विकलागता
mind
निमोनिया
मानग
सनकस
##गवार
कलयग
निकतन
motor
दारजिलिग
##ev
सनती
##आईएस
गराफिक
गायको
##ume
डायरकशन
जालसा
सराबोर
cur
३७
1936
जझत
credit
##णडन
##omm
पखवाड
##ider
फरोखत
भिडी
शॉर
##यजी
##पसी
विरल
meaning
##ivity
करिअर
लयर
##चियन
उनहान
उराव
##ौच
बखशी
नपक
then
सति
##ॉइट
मिलात
अविस
##जोशी
रडार
बालाघाट
दिनदहाड
##डील
##जीम
##हरिया
404
एकटिविसट
मककबाजी
registration
कबाड
##ामतरी
रिकी
औषध
चव
फशियल
##जग
##मानद
उपहास
कटिया
260
कलोज
मापदडो
टिश
wi
अलकत
शिवाय
been
अजीर
utorrent
महनती
जसो
chat
##फॉरमशन
उपगरहो
private
जमल
दरबारी
सपली
एएनआई
##कसो
महाशकति
अडरवियर
bigg
##ोगलोबिन
भपनदर
फलाए
सीरियाई
सिखाता
बनकाब
phil
कफीन
##वरषीय
nagar
बही
किश
सझबझ
तरोताजा
बिचछ
डरगन
अरबपति
थायराइड
रोप
उपमा
कसकर
चढी
##atha
बराडड
ey
बइ
##ning
सीहोर
##भाड
सखयाओ
मसालदार
##ककष
तरिको
टराफी
डथ
##एशन
दबात
रील
अशवगधा
चताया
वादियो
पीसीबी
इकलौत
वरडपरस
ससा
##वाशिक
कमरामन
दिहल
##चयन
##कटिबधीय
हिदोसतान
##imes
सजल
reliance
जिगनश
मनमर
##मरणीय
पशचाताप
##ases
छटनी
कोलबो
##करसी
सनहा
सखबीर
खीचतान
वलन
##वम
समोक
##रददीन
बिछान
##िशस
एलएन
वीवो
हिलान
जलोटा
जयनती
कदरती
सरवाइ
कषतिज
stream
##हनी
बनवारी
बहमखी
prabh
तयागपतर
रिजरवशन
उकसान
week
सतप
बौखला
चककी
ibps
झोला
थपथ
अपा
राइटर
चडिया
##gen
नवनीत
खोपडी
##a¤²
सामराजयवाद
यजवदर
##यजञ
##िलला
##िरमित
माच
रघराम
पाओ
आतमीय
अहा
आरकषक
वयथित
पहाडिया
drive
कउन
##पपन
निकास
##ॉरटम
गोदावरी
इनदरियो
better
ओसामा
रसख
filter
भडाफोड
उदबोधन
सघो
पितसतता
##भावी
गिनीज
लखीसराय
milf
भगोड
नकसानदह
total
##itude
एकसच
दीरघाय
##ified
उजबक
irctc
अती
refer
खोई
बाधो
साइसज
कारनामो
सिरीज
सलकशन
लजजा
रॉड
##asat
जमला
137
##quo
कनफरम
अरि
नयौता
कीटनाशको
चतराई
साता
थोप
परदायक
moto
चरी
##ारपर
काति
तिथियो
उममीदवारी
सयतरो
यौवन
##ओपी
##कोस
फिजियो
हाहाकार
खगोलीय
pix
शरयस
groups
परसिदद
परमहस
मसडो
गजदर
आउटफिट
शतरता
तसली
हमराज
##िटबल
मारती
कोहनी
example
वदधा
आलोचनाओ
manager
ju
फकलटी
ककडी
रदरपरयाग
बकल
बहतो
मरता
नगला
##चदरन
सटोरीज
wel
ढोग
##िजो
कॉमब
एरिक
नकारा
##णन
परतिपादन
अकलापन
नवनिरवाचित
टमपर
आसियान
मलको
लोकदल
##षत
apne
days
भवयता
मोइन
12व
निकालता
सगरहीत
##ऊन
परतिभाव
पहचानी
पाडव
match
##डरिक
usd
फाइव
सीएनजी
तवा
बचाय
गनीमत
din
बारबार
repl
रजक
छील
##0पी
225
##ounc
फिटिग
परतिदवदी
रिवायत
एतिहासिक
डॉ०
कविज
वादक
परोपकार
चमबकीय
फीता
एचएस
vit
परतिबि
जगम
##खली
##ोनस
बहना
यदधो
लाएगा
##mar
याचना
##विराम
कदकर
निकटवरती
अटच
परवरतक
जवलरस
इनदौर
kashmir
सकनर
सगरी
student
panch
टपक
डबत
धमनियो
##वदधि
##friend
दरवाजो
खोखल
##ival
फलोशिप
नियकतिया
सथायितव
कौडी
सतयपाल
अपरणा
##ges
परीकषक
##षाण
कडवाह
भाईचारा
झिझक
##िकाल
होनवाली
chrome
धाराए
रतनो
diet
नासिर
दशमी
##मसिह
कतयो
रिहाय
मलाक
लाजमी
समझिए
boy
आबाद
##bl
##गाट
टरसा
left
उफ
धरमपाल
सटरिग
फव
जनकलयाण
किगफ
जच
##मटरिक
खडहर
तिप
##विट
२०१३
हाइडरोलिक
maker
मककी
##ayan
##olution
dise
nr
बानगी
jee
बठाया
विततपो
##िनाल
##गरशन
अविल
कपय
सदामा
सटीकता
टविट
वॉटरमारक
##ela
सवयभ
##तनी
कलिए
पढाना
खलल
दःखी
##पचय
गाकर
खटट
ti
जजी
##फाइड
करिम
जलबी
हाजीपर
अरशद
आवग
आवक
पिरामिड
##काणड
176
ali
रियासतो
ayurvedic
##यारी
बाटना
अडरवरलड
##िघम
वारन
सलामत
गवरनस
परजवलित
##िगार
इफकटस
सडा
अदवत
यशराज
विसगतियो
धोबी
हाजिरी
bm
well
राजमहल
बीडा
लसनर
छला
चरिटी
टयन
मकिग
पहचानत
koi
गोलाकार
डिटकटर
लईस
active
mass
##गनि
गिरवी
7000
नगालड
नमनो
भलीभाति
krish
सलाब
तदआ
नपा
दखनी
##andi
आईसीय
##कानत
भखड
##कषि
हिलाकर
होलडिग
मसौद
recent
सगरहित
cool
इरश
ताव
होइ
जाऐ
नाटो
भाईजान
सिखात
दोहराए
किगफिशर
vot
वहत
आठवा
परतयारोप
तजर
अनिदरा
वाटिका
रहोग
पलको
पतित
टोयो
फोरसिक
भभाग
##anka
खाओ
जयदव
सिरका
एबीपी
##ॉरनी
एनडीआरएफ
बरदरस
निराकार
imp
एमएलसी
##hindi
##हाण
पलिसवालो
चारपाई
अतिशयो
सगमता
सथानानतरण
compar
महाकभ
इकोनॉमिक
तरकीब
एमी
वव
सलिल
डोभाल
गणितजञ
##लाजी
निषपकषता
vish
##चरस
गरमजोशी
उमाशकर
गिरिजा
##hamster
डीड
##ईआरटी
फासफोरस
foot
wire
सरक
##गीतो
उपखड
गोलमाल
मनोचिकित
effects
रघवीर
विशषाक
kart
ईएमआई
समपति
##णाचारय
डरिल
समभवत
तिथिया
पहलवानो
##vent
वरागय
कटल
बिगडी
सरायकला
रिगटोन
हाशिम
एगरीमट
सनटरी
बहरा
रिजकट
खडल
हीम
बरावो
डीई
घबरान
8000
निगाहो
गरबा
अविर
1400
सपसिफिकशन
cele
brand
रामनवमी
##डीएआई
परिमाण
सशरत
tricks
कडवाहट
छना
##धीकषक
सटीकर
चदरगरहण
निरविरोध
कहानीकार
फिच
जलीय
जनसन
अबल
टराली
हकार
##बीच
रिवर
उडता
एकसपरसव
##0पी0
किलर
चनलस
सरवहारा
##osp
छिलका
अवाछित
बकरा
हकर
हरास
##कजडर
##mat
##िलया
सकाइप
##लीस
##िदो
trending
##nal
##ulation
वशवीकरण
ईएमय
कटान
धधला
नॉरव
जररतमदो
##रियन
पदय
रती
##गरात
बौलीवड
aapako
##ре
अपवितर
152
अथाह
परकटिकल
वानर
ok
##डि
सबित
परसगो
##राला
बहआयामी
परतयय
रगडन
फिजिकस
खौफनाक
##चराइजर
मॉरनिग
हi
परतिपादित
हडप
england
परजटशन
dil
1900
तनतर
कनयाकमारी
अणओ
utc
ऑडी
हकरस
thought
##room
जनमजात
छटपट
376
ऑरगनाइजशन
xhamster
खिलाफत
डिजनी
गवाए
जीरणो
##si
##mo
दरगामी
हरिहर
असहयोग
movies
##विदो
हॉरम
एकलवय
नहरा
##चारया
आनदित
promot
तिकडी
##मरा
##बतो
चरखी
सगति
दरिदरता
राजगर
तबतक
लोजपा
##83
समकित
अवशोषण
रगर
बजार
सौराषटर
खिडकिया
बरॉनज
अफरात
सरगर
पाखड
मागती
पोसटम
506
विलियमसन
मधमकखी
करीतियो
विरह
##परोहित
काफिर
हटरिक
परखन
दशवयापी
सीएनएन
dal
mut
##काट
गिलोय
night
गबन
लावा
wedding
bul
चटिग
कमतर
रपक
##ori
##शीष
##सटारो
कनवास
##वालिया
नसबदी
पापड
शौहर
##yam
विधायिका
खालसा
gur
राका
अलख
यथावत
आऊगा
##यापन
पदधतियो
तलय
बजी
जिनपर
पदमिनी
##सतरो
बराइ
फरीडम
environ
मासटरमाइड
##जागरण
##चिता
डीबी
लोढा
पराइवसी
king
ईटो
एडो
##ाइय
उपबध
दौडती
पतनि
वनसपतियो
करदाताओ
सवीप
prak
##ground
eye
build
experience
##ियाद
उतरती
##tel
राड
कॉमिक
टोयोटा
अतिशयोकति
एगजिट
उदयमिता
एसएम
सामपरदायिकता
पहचानना
सीआईए
##िलश
जाड
शतकीय
डीएवी
pk10
तोल
सीनस
सभदरा
महाकवि
मरसि
नीलाम
पोटली
##रोपण
जमई
नालियो
अकषाश
कसतरबा
मानषी
बरकत
यकतिया
इरशाद
छनद
अलबरट
खोलता
नौकरशाहो
desh
बनारसी
महाशय
##निटी
आउटस
rikordar
नडडा
आईआईएम
सकशल
परकारो
निरदशको
बनायग
योगासन
##धवज
गाधीवादी
मोमिन
मलबरन
नारमल
टाईगर
मिकसर
छिनन
धया
condition
आणविक
सादिक
सालभर
मधरता
वलादिमीर
##कारिया
##दीना
सतही
anything
reviews
मधयकालीन
आकी
जजीर
जीतत
एलओसी
##गणश
फनी
##मौला
परलोक
मकखी
सरचनातमक
शशिकला
सिरमौर
गोट
america
रिएकटर
ताहिर
pictures
एपर
कातया
नायको
पिशा
निरभी
बदिश
##सतीन
कारीगरो
औरया
विसरजित
एकसप
मिरची
खिताबी
अफरातफरी
खाप
133
karata
1939
रसोईघर
##gets
##го
##43
##शहर
बलागर
सडी
कावया
##वारड
यवावसथा
दरदराज
झाग
##लोग
##दस
##ml
विलसन
अडानी
homeopath
सशलषण
ओएन
शती
सचि
विजिलस
आनवशिक
एकसाइट
सौजनय
बतलाया
suv
विजञानी
बमत
अधिकारिता
अधिकारीयो
आयातित
बलॉकबसटर
एसीबी
धारणाओ
सीआईडी
bsnl
##vakta
4k
अलज
कटोर
14व
सिदधार
परसतावना
##पोश
prin
एपीआई
हलफनाम
कायदा
आईएमएफ
pravakta
##वसर
##hs
टीसीएस
टिव
used
problems
नलकप
##कतव
चिगारी
नपकिन
टिफिन
वरकरस
उतपादको
एजल
छलनी
grow
odi
जागन
अपराकतिक
गबबार
परशनोततरी
अलटरासा
9वी
बनदल
##inst
##मारगो
तामर
mode
##ममा
बीई
पनरत
परोफशन
२०१२
यशोदा
पकौड
अछता
बिचौल
खडलवाल
अजली
##इली
##king
लपटा
अकी
अडिग
यास
##गाथा
कारयपालिका
झाममो
घटनाय
##apps
असमभव
मजाकिया
##आइटी
सौमया
वाहवाही
सटरकचर
जालोर
term
रोहतास
डिजाईन
मरसिडीज
##णियो
मनक
##सलस
1300
जनिफर
हलीकापटर
वतस
##ियास
कमबल
कालसरप
गौण
विजअल
सहसतर
ओरियो
वयवसथापक
##भरश
command
##rope
विचारको
अशवनी
शीतला
सनपडील
कनाल
गमन
जबी
a¤¦
चितरकारी
भतीजी
tub
##ilar
गाई
##वाची
कमकम
सवयवसथित
परतिभावान
राजाराम
दरबीन
एनआरआई
घसपठियो
keyboard
मदीना
##टोक
पाबद
बाटकर
बोग
सोहा
##atem
असरो
रमानी
##िएटस
सटाक
##apan
गोरखा
सरासर
पकारत
strong
motivational
##embly
##पीन
सारक
पालघर
मिथको
लावारिस
यीष
घमाया
सोख
तबस
शाक
दहिया
shivpuri
सिदद
करमठ
शोभ
सपरिग
किननरो
vict
हिया
शोधार
गढवा
जवरात
परजजवलित
हारा
##guru
सनदा
रॉबिन
tata
भपश
टीकम
पडल
perm
मतरिपरिषद
टसटी
##शरीफ
परतिबिबित
अवन
बनवाई
तजस
आरसीबी
वलडिग
sang
उफफ
##गीण
फरनाड
नरला
असहमत
##ssc
सरजीत
इनदिरा
##wh
बटोरन
खोना
does
अपरिचित
##योदशी
मनसमति
पावडर
रझानो
यचरी
##अरट
मनदिरो
झपट
सपौल
विकासखड
मातापिता
रीमा
गरदासपर
बीएचपी
ओजोन
उचचाधिकारियो
पीठा
बाइकस
शाकाहार
##वतन
##डीएम
जातिवादी
रकतस
परतिसथापित
बोगी
##au
पॉलिटिकस
डका
##zn
अपोजिट
वशाख
bur
सरन
भरात
उरगव
योजनाबदध
फॉरमल
तफतीश
टकडी
alt
सरयदव
मितरा
समॉलकप
पब
##dd
विशनोई
मिलिद
गरास
जलपर
सलानी
##ातिब
पजीगत
कदाचित
गियरबॉकस
जनसमपरक
तिरसकार
परोननति
162
siasat
सोफट
धमकाया
मिसाइलो
टोनी
##ault
खातन
नतम
यॉरक
लारड
रकषामतरी
अधिकाशत
निकोलस
##अस
हीटिग
सपो
गोशाला
भटटी
निती
दमोह
वना
##िसाल
नदिनी
यथासथिति
अविसमरणीय
kb
उगान
टॉर
##ातरम
निरबल
खगाल
रिसीव
2जी
मकड
पचना
राजयोग
मारवाड
ममम
हरसभव
ns
रमो
##एएस
बसिन
चदौली
अरथवयवसथाओ
##ruct
##epend
8वी
साहिबा
कसाब
एमसीडी
##िगण
वोहरा
exams
विलाप
चरितरो
नारायणपर
बाईक
cock
भसा
मालती
लोकतानतरिक
break
sri
हसरत
बदहाल
सहलियो
1280
##ural
abs
wife
रयान
दीय
लाएग
automat
पदीन
##परशर
तरटियो
लाठिया
##एफटी
दहलीज
बिछड
ताकी
बोलग
डिजायन
उतरता
दरभागयवश
बदधिमतता
लाउडसपी
इसराईल
pie
##रह
##46
कडाही
जझार
fest
टरनी
खातमा
चदवा
mad
##वायरस
कषदर
परधानता
अतयाधिक
बीम
##फील
उजाल
interview
रिर
परदाताओ
विषयवसत
जमानती
##97
302
सहागरात
पावरफल
सलाइस
हरिओम
किरकिरी
निरगत
कामरड
सपतमी
फालगन
घरषण
गाणड
वाघ
डकार
काउट
बखश
मोटिव
यनिस
मसीबतो
##a¥€a¤
##वटिव
यलो
rece
##ules
अपराधिक
उब
वहिस
age
मरलीधर
विपतति
रगारग
नोटा
घाटियो
हिरन
धतराषटर
बाराम
मणिकरण
##गराही
अवशषो
इकोनॉमी
gorakh
जोत
घटत
बजाना
lar
दपती
लिज
##मली
कारयपालन
वादन
खटटा
फाद
तोता
मरारी
कतब
पौड
परतिकार
ढाब
टथपसट
फणड
फराइड
शीशा
गडढो
हवानियत
सरदास
सोशलिसट
लाएगी
ऑक
ढोन
##ser
chut
विनिरदश
सटरॉ
सीखग
फारवरड
रशमा
पोसटमॉरटम
तिग
बिमब
भावकता
बमशकिल
परातातविक
अरावली
झरर
लाली
##सका
##nu
##ат
समाइल
मारफत
जलाना
घोषणाओ
फारमासिसट
cost
अपच
सॉफटवर
लाजपत
भईया
idea
close
परसो
रहनवाल
विलमब
पतरस
दषपरचार
अबो
बठग
तबको
##भोगी
##95
##red
हरोइन
सरकस
नीची
सधाश
हीरालाल
कोका
अरक
similar
ओपीडी
pand
##नाशी
जनततर
परवतार
दवापर
मनोरम
दरोणाचारय
रालोद
##86
कदरा
लनड
खरपत
सभालग
झरना
##मिरच
जौहरी
mang
ईओ
hotel
मागनी
अचरज
होव
बिम
बॉन
बदलगा
सिली
true
हमसफर
##ायग
##िगटन
कटियार
एडरय
koh
अधिवकताओ
property
लबनान
आकषट
करततवय
फारस
सीएजी
आजमाए
हरइ
बहरीन
अजीम
लोडिग
अलो
##दिल
निहा
असगर
##oci
तनवीर
फिदा
बरहानपर
##41
##ental
states
परकिया
मबरस
निनदा
वतता
कावर
वीडियोस
रिहर
रविचदरन
अजीबो
सरवागीण
guide
वलरड
धमतरी
##uff
कपवाडा
forum
##ways
jay
आइन
टपर
##चतन
जोहान
बरका
डॉकयमटरी
विडीज
सतपत
छोडग
दारल
उषणकटिबधीय
ऐठन
##िबदध
फशनबल
समारको
यल
##hra
सिहर
सीजफायर
##लख
नरी
आशविन
चमकता
##पातर
सकनद
वीआर
समलगिको
travel
statement
mirror
पारको
अतरदषटि
गौरया
##नालटी
##वई
##dy
मोनाल
##िटस
इचछानसार
चमकती
जिर
राजपरोहित
उपनिष
मधसदन
उथ
बिरग
ко
खबियो
रीत
बफर
बलगाम
कठपतली
पजीपति
लाजिमी
यथासभव
गाम
चलिय
रोपण
सिलिडर
इराकी
कायाकलप
##निरो
पाण
जयकार
बतायग
गनदगी
डोज
किडन
एडवरड
इटरनशिप
gay
यआरएल
हऐ
anti
वरिषठता
डिजी
where
अवारडस
मजहबी
सनटरल
नपसकता
अवतरण
पचान
लहगा
थकावट
लथपथ
कठा
मानयताए
तहरान
परछाई
अगनिशमन
इडिपडट
घघर
भोली
धरमान
##ables
यनान
वकसीन
b0
pap
मवात
##paper
हरिस
टरिम
लमह
getty
उगरवादी
खरोच
यआईडीएआई
सिथटिक
jamm
md
महतोड
##avi
शलजा
global
ips
रिफर
सधारक
young
उतरग
फारख
secret
सलिपतता
##चछादित
##लकषमी
साहकार
डालगा
सहनशीलता
आसटरलियाई
financ
शॉरटकट
dam
निरगण
##शीरष
323
399
ओपपो
अगरबतती
##ाइनिग
जीवाशम
##यती
##rah
टीआरएस
जागता
dog
##षवर
जोकर
परनसटारो
माइलज
छकर
झज
stre
आइसलड
फिसलन
diesel
सवीटी
फोटोश
##rav
सतरी०
पराचीनतम
रोलर
gorakhpur
##कीरण
मोतिया
मखातिब
टरिगर
चितरगपत
विषमता
हसम
डिबट
##भागवत
परसा
वरधा
नकारातमकता
healthy
अराजक
##इजर
##elect
आईपीओ
pah
includ
उतारना
१९०
अटॉरनी
अटलाटिक
बबनियाद
करब
##बनधक
डरो
भिकषा
रककर
मारकसवाद
झालावाड
##gc
लोगन
कामिनी
बसान
सौतली
उरी
गटबाजी
दपतति
रध
बदह
##पाटी
चौरा
बमिसाल
asus
वसन
##ामडल
सीआर
लनो
सधी
##सया
##मील
नरपर
##सममान
bhai
मासपशिया
pract
दाती
एनआर
विनी
##दददीन
तिरपति
अनशसित
धराश
clear
##भोज
##िपतर
##घाटी
रियलटी
positive
##wari
##तरह
बहधा
ससतति
##ियारा
गबबर
marriage
##लया
##णठ
मतरमगध
बिगडत
सरगजा
लारा
परिसपतति
महरबानी
आभषणो
ऊरजावान
बठिडा
##मटम
सतयग
माइकरोइल
अटका
मिठाइया
नवनियकत
रगयलटरी
जीरणोदधार
aama
##घि
नाड
बाटत
निजामददीन
माइनिग
nda
##नात
विमला
142
आवासो
##achal
common
छतो
हिक
##ालिक
21व
भडकी
4gb
850
ढकन
##esy
कटिल
##iparty
इकलौती
राजनीतिजञो
लायन
बजामिन
कटकर
विचारणीय
दबाना
दवीलाल
##वदनशील
उततजक
रसतम
अनभिजञ
छलक
inte
निभाएग
अवयव
शमभ
करीबन
शीशी
यरिन
माजरा
९०
##cr
##वासना
हकिग
अकारण
##फता
##परयाग
बिदास
##ри
लिगायत
aamaadm
हकका
फॉरन
कारयातमक
ससपस
मडिटशन
based
तरिकोणीय
aamaadmiparty
##gt
जोखा
पाकड
एजलिस
टिकिट
वियोग
सहना
खाकी
२००७
बरतनी
हह
##point
##परसथ
अरहर
पदस
अभियातरिकी
कमोडिटी
आउटसोरस
ईटी
लकवा
आईओ
##शोध
330
झडना
वटर
##रोला
neg
धनव
सवीकारा
डाकयम
##वाश
उदारीकरण
##एफए
1929
सामानयतया
लघकथाए
विशवश
लकषमीनारायण
officer
महफज
हाउ
अदाओ
boo
##शिमा
##utes
आधिपतय
महाधिव
##oose
रिलकस
तपसवी
الله
अनकान
रोजर
निवारक
##tery
aapko
लचीलापन
##धारित
##मोस
गरीषम
परशसनीय
डगरपर
सिदधारथनगर
तश
दवदास
##पोरा
##oph
डोमिन
1928
दोहरात
jammu
##चला
##गारिया
baad
लआउट
##शासन
सकद
नवम
निशानबाज
झनझ
उपनिषदो
अहीर
##मोर
दिखला
releas
रनव
हाउसफल
independ
europe
झररियो
धव
कोली
होमयोपथी
नतमसतक
रिहरसल
भतो
अरपिता
updatem
सवानिवत
##राफ
समनदर
आहिसता
नहरो
मनचाही
यारड
##सलट
बजत
##amin
साहित
हसति
हच
सलमा
भगतन
##estyle
रघवशी
सिकस
##uit
फारमल
##ulture
pot
झणड
ठमरी
यतरी
##दराज
##ede
छापामारी
orig
हाडी
वीडियोज
चोला
अभिस
हाकी
कडिडटस
सीवरज
nik
झकन
जरदारी
कॉनटकट
updatemarts
##िबल
पीटरस
chah
फलाइग
sell
सथरी
##दरशियो
उ0पर0
liter
ऐज
मजीत
मनोन
धयानपरवक
तजपाल
समीकषको
खीरा
परजीवी
सतरधार
alive
different
नशील
##bhar
दरमक
विधय
निहाल
उचचायकत
नरसिम
award
##गीता
##एमएम
बोलियो
डाटाबस
बदतमीजी
सटअरट
अनभवहीन
शिविरा
skype
मासमियत
अलटरासाउड
हगड
##राधयकष
आईपड
##omb
कबरिज
तौलिया
yoga
एथलीटो
pv
पजनीय
वयवसायियो
उपकरमो
अमरावती
पनालटी
कॉनसपट
गजारन
hog
चौतरफा
राजनय
रिहायशी
icon
शमा
को०
instru
यगाडा
अटर
कलोन
uc
झास
डपर
विलायत
ईपीएफओ
तमी
टरट
एजाइम
मॉनी
दगना
atal
अनकानक
कविक
कोता
गडस
जानवाली
नापाक
बराहम
दवीय
कलपनाओ
##तनम
हलइ
नवोदय
उपचनावो
corpor
दरबलता
1919
चमडा
उततराधिकार
हयात
मिलर
##यटरस
जयादती
bust
शबन
परवो
परिसी
iso9
पहियो
कषरण
जनसवा
1932
जॉरजिया
भदोही
tamil
लायस
टीआई
कमजोरियो
ढाणी
बजाकर
पिलाया
तखता
बबा
##जाक
आलोचनातमक
सदिगधो
magazine
sens
vp
रपश
परिवाद
मीम
फाजिल
candidates
##ियानो
फीका
chal
##96
##पोक
वहल
fat
भलत
##ima
शौकत
##यारा
##कीमती
लोकगीत
##ript
रतती
अययब
hours
पगाम
वॉन
##मयता
##नाज
अभियन
##वासित
डसकः
नवनिरमित
नितीश
शरीगणश
हकीम
subject
छआछत
तरयोदशी
लिटा
मानवी
अपनाय
मचाई
हाईटक
काटकट
नियकतियो
कउनौ
महशवर
##ema
सतोषी
kit
दसता
सभागीय
दौडकर
टरडरस
रणधीर
##ोदित
सलीपर
पयर
दरजी
##रमिक
दौरो
##सिब
फककर
एगजामिन
एकरपता
पसार
##पचायत
कौरवो
mother
सटाप
action
hp
गटर
चकमा
चसा
##ho
अमरजीत
कचलन
##सोनिक
324
रिफाइनरी
निदनीय
लॉर
दससाह
अगलियो
##ावधि
##दलित
परचणड
सायकाल
हरषित
गणकारी
exec
भागीदारो
रिवाल
पजार
##५०
बाजरा
अशिकषित
141
##ists
##गराफी
बकरीद
डरावनी
इमति
भजनो
दवारिका
टरबो
कसरिया
##iver
रसतोगी
##चिडा
airtel
storage
##aim
##गास
##डरफ
दलार
##ila
पराथमिकताओ
नाभिकीय
दडा
177
mobizen
चशमदी
ups
##सटारस
मलटीमीडिया
परयोजनो
##वषटि
परोब
चिललात
##माफी
dunia
##फाल
गरब
मगतर
ककआर
गरभनिरो
cou
सहसर
हिड
कमाडट
इचछित
इनवसटरस
अपरचर
कालजयी
खतान
आरथ
मराडी
464
फिटकरी
antar
टोरटो
मिम
हडा
दरभावना
तलख
##a¤¤
अणड
इसटा
##रायली
politics
इनोवशन
medical
अमज
खरग
222
लिटिल
meri
चयापचय
एबसडर
डाम
##ocus
मॉडलो
बिटट
##adesh
परोसटट
लोया
सलिबरशन
एवरज
नवीकरणीय
jal
छए
##परमी
पलऑफ
कहिय
भागता
कॉगरस
चदल
##भटट
विबलडन
बचचिया
गजटस
निदशको
##नाशक
खदानो
बायर
एकय
मधयर
##एलवी
फायरफ
vill
##दानसार
मगलसराय
ताजजब
छाट
गआ
##नवाज
समोस
वाषप
नरगा
ther
अमबानी
विनिया
टरासपलाट
बिरयानी
ओएनजीसी
gall
सोई
कलच
लडता
गलद
अनसनधान
जनसनवाई
making
साथसाथ
205
रनिग
परारपो
डरायर
एजाज
तहजीब
कोडक
पछिए
शाकय
परॉज
इमोजी
elections
मिनिमम
गलशियर
जगमोहन
विदयासागर
1921
courtesy
mish
##vs
##खम
लोकर
चोटियो
a2
हाईकमान
altern
बझकर
यदा
things
सिखाना
kyon
छर
हती
अगिका
भगोडा
बिठाया
परफयम
##action
जनधन
गगाधर
आवाहन
एटरस
भारतीयता
लिखग
मकबरा
२००६
msg
tet
##बती
गरभग
पारलिया
पलिसवाल
कषणन
अथरव
जमीद
औफिस
टस
शमन
महरम
सीड
बलगाडी
सवाहा
रकॉरड
पछतावा
मगो
मचल
##ury
भजग
जितान
मोरकको
मिरगी
शताबदियो
किशनगज
##कतीकरण
poss
मति
##कटल
एयरबस
झजजर
बघ
यतन
परखा
रहनी
बरगर
धाबी
बशीर
##फिकशन
##kari
लिखगा
डरावना
##ua
पराका
वाचन
जयोत
बाधयता
नगणय
चिपसट
टरडमारक
सनदह
##85
##छल
लनोवो
ss
touch
सहरा
vidhi
वफादारी
बआई
शिफ
##बासा
बराडो
हतथ
कानफरस
पतराक
करसिया
काकी
##गरल
budget
निब
बलावा
हलाकि
तरिफ
चढात
फकना
1935
४२
बिदी
##athi
बडका
मरीद
लोच
devices
चिडचिडा
निहायत
##डकस
सरला
रिसोरस
##ences
गिरजाघर
##cb
सारग
डरिलिग
२०००
मटाबॉल
मोनालिसा
गाइ
परतिमान
1924
डिसटरीबयशन
कघी
चणडी
बारम
नामदव
मखयालयो
##a¤®
##sha
made
som
हशर
##ागिरी
पराशर
##itor
खानो
फीलिग
मसस
फखर
जलात
एलटी
आदोलनकारियो
गरगोरी
लाडली
खाड
अहिलया
##षटिकरण
जनमकडली
शबनम
sv
समयसीमा
परतियोगियो
टाडा
जतओ
##यनस
convert
होमवरक
ढककर
आरडी
अवजञा
सलोनी
मकनिक
while
##bed
नीरा
जमाए
दोपहिया
इफोसिस
नाखश
##ामि
दीव
##ano
लिबास
बिरला
months
सिराज
खरीदता
नागराज
उननीसवी
कलकलटर
राना
हरिजन
अलटी
आइकॉन
डोली
tagged
परितयाग
दयोतक
रजाई
सामयवादी
दीरघाओ
३८
##फलिकस
पौतर
गमश
चटकल
abh
बशकीमती
टीकमगढ
गराड
फिजा
योजनानतरगत
पराधिकार
##डरमा
हतोत
associ
विवरणो
चमकान
चिकनगनिया
कामदव
विनर
सिकख
##pos
धयानचद
iso9001
इनटर
##apt
पराइज
ऑरज
सबरत
कलया
विनिर
जटाई
गडडी
kms
सममोहन
सखमय
जयशकर
इजीनियरस
जलापरति
1937
नटस
भभ
##झल
आतमदाह
अनधकार
जनऊ
कालका
##मबरग
bih
पइ
##सलय
##शोधन
डिसकॉम
टलि
##वलोकन
परीती
तनातनी
added
मलटीपलकस
बलातकारी
नीलकठ
अदन
सिमल
पलटी
चरस
रसलर
यमनानगर
रिकारडिग
उखा
पाऊगा
एसई
थानाधिकारी
परतिबिम
चवहाण
सोहरा
dead
मणाल
इशात
उभरकर
arrest
##kv
खयालो
टहलन
##मिला
कलकट
सजाए
वलिड
विनोबा
##हरटज
कटता
supreme
b8
कीमो
तरपण
a¤¸a¥a¤
चोल
कलारक
रामसिह
##वतार
बरकफासट
बरकस
पदसथापन
पकडत
घबराए
विनियामक
रोकती
विनियमित
तीरथयातरा
wa
##ोरिक
बचड
बताद
1917
तासीर
इडली
भागती
महानतम
vij
##pres
होशियारपर
जएस
आरयसमाज
perf
मोग
##पशा
डीटी
##गोभी
जिटा
भरसक
##apur
##ogen
उगरवादियो
assembly
समीकरणो
षषठी
काढ
जानो
भदरा
छिपकली
परतयकषदरशियो
वदान
सोनकर
साकषर
beh
##eg
बरखा
सलग
बिलडरो
लटकी
छापी
बनदक
वसललम
पनरावतति
8d
##बरस
चलायी
डॉकटरट
a¤¹
चटाई
धानय
करियाकलाप
माइकरोइलकटरोड
तहा
##िनम
##एचएस
दरभाष
रसद
अनकलता
अभिननदन
फोनो
करबला
##करिपट
पतथल
कॉलस
##राबाई
कौनसी
आकराम
president
मिलजल
नसलो
चिलडरन
zen
उपजी
भाषय
trade
शबबीर
ईको
##योजन
निरपण
##oms
आरमस
दआए
परमिशन
थानाकषतर
चतशवर
बिरगी
चबतर
गमशदगी
दीपोतसव
##िबिलिटी
hindu
पलगइन
सडल
##ऑर
##ony
पिणड
परिसरो
रोमानिया
lifestyle
साफटवयर
##उगी
##िनदा
##तीकषित
जानकरी
उपाधीकषक
गीताजलि
छीट
bf
रको
लचर
##pad
##iler
नोच
##ength
एगजीकयटिव
uid
203
आरथर
146
बशरम
background
companies
बिशनोई
##ally
वातानकल
गरभगह
bb
नरसिहपर
वलकम
निरभय
भित
एकसटर
हासप
##osis
सायरा
लीडरशिप
उजबकिसतान
ईडन
उरस
डाग
नायल
सवयम
फरजीवाड
बोधगया
सधरन
हसमख
वगन
रलिग
कोलहा
डराइवरो
चिठ
नसखो
चरमपथी
biography
solution
हीमोगलोबिन
लाशो
सनहरी
अजम
कषणिक
नासम
dild
तपो
रवती
टीएस
उनमकत
समनवित
jaipur
उगत
ऐकस
सदान
सिमी
टकसटाइल
तकलीफो
धबबो
##x7
##मनो
चोदो
कतजञता
परसनलिटी
शयामल
ceo
उपासक
माहा
शोधो
जाफर
टीएमए
रलगा
हसतातरित
सवदनाए
वीन
तरफा
teen
नवयवक
मनचाहा
तिराह
##a¤¸
सकतको
टील
खोजशबद
1938
एआर
शॉल
नवोदित
chief
310
लॉकर
दिलाए
परसततियो
बकटीरियल
गदगद
##ोरात
सिच
बॉब
रिझ
सवारत
परतियोगिताए
अननया
##लाइटिस
उगाही
##कियो
हरफन
परतिशोध
place
ठकर
धडा
लभा
दधारा
activity
यनिकोड
जहान
पदीना
बलाना
##वयह
बगदाद
मॉक
भगतसिह
हटाओ
graph
अनियमितताओ
##नावली
बौन
##परसत
पारिश
बॉयो
काउन
सवाधयाय
नजरबद
##thi
हथियारबद
pradhan
डलटा
यौगिको
karte
bcc
guru
##वरतमान
एहतियात
मवा
महलो
निकलगी
मगली
जतथ
फासला
3rd
दरिदगी
बठान
रिच
मतयदड
गॉव
तगलक
die
lov
चहान
परयोगातमक
हिमालयी
जोकोविच
480
इनफरासटरकचर
सभयताओ
##ौदी
लाइम
बिखरन
shopping
सडन
##लटर
##हवी
वालट
सवादो
सपरही
##थनॉल
विनियम
महिमाम
event
तरिफला
अदाकारी
अनतरिकष
reply
jis
कोटक
बारडर
sitem
den
करतब
सशकतीकरण
होक
शभचित
तहकी
नशस
परयवकषण
जिमना
शमशाद
मटरिकस
वाटसएप
ढिल
मालगाडी
##एफपी
such
गिड
विगरह
विमख
##adun
पीएमएल
हयसटन
हरिशचदर
टसटोसटरोन
तलीय
बाना
##गय
सीएल
##eral
##िकरता
##ipe
चौकियो
पतराचार
चबान
##टीरियल
सिट
सपम
सपाकस
वामपथियो
अलपकालिक
finance
डरिकस
कडव
being
निचला
बदरगाहो
dvd
जदी
##यातरी
इसता
वयज
परचारको
ऑपरटरो
backlink
गराट
पगला
मदनलाल
bag
सनकी
गणातमक
रिली
हाइकोरट
blogs
बोतलो
##राक
##बरहम
हलाला
विलज
##tech
कटटरता
सझा
विचलन
ठन
##दवन
सवरपो
नटफलिकस
poetry
शिख
असदददीन
बसटर
मधकर
तहस
कोताही
डप
डालिए
गमला
रिजवान
##acter
अनकरणीय
ten
##मटो
एफए
कककड
गढन
समयावधि
font
सपरसटारस
तीरथकर
मोहक
विकरात
दहाती
लाउडसपीकर
छती
निरवसतर
##शीघर
dhar
सोती
साधको
##inder
सीएनसी
घमक
पौर
##घटा
##परन
मानकी
आसकति
वरणमाला
कवरी
जपत
##किनी
चौखट
चकता
तमाश
करोस
##पचप
taur
##चौथ
vash
झमा
##सड
##सरी
किडस
##िकत
##ागनि
मदहो
चकरा
चरन
166
बशरमी
छीनकर
नरा
सरिया
पीढिया
अरहता
माउटन
children
बहपरतीकषित
kids
mt
##nm
मासाहार
खामी
feel
करिशचियन
जशपर
डसटिनशन
शकतला
एनसीसी
रजिमट
हटना
फॉरसिक
इमतिहान
जिए
appe
फोटोशॉप
रला
पसिफिक
भाजयमो
बरामदगी
ललकार
explan
ईएस
जाला
यादचछिक
खोजो
मडीकल
मलतानी
पराकाषठा
20वी
##ening
##uti
वामपथ
सारसवत
सरवद
##istry
सलाइ
उलटफर
घावो
amazing
अमानय
जगमग
##ams
lekin
दरोण
नपोल
३९
पाडल
नाबारड
अपरटिस
##परफ
बिकनी
विवशता
घसत
सामराजयवादी
कथल
नहस
तादात
१९४७
हासपिटल
गपचप
##uro
तरिन
##बराल
बचग
##adem
छोडिए
करियाशील
baby
कषतराधिकारी
ऊउ
##धवा
वाष
reason
कोटला
जटिलताओ
इसमाइल
रिपोर
सपरिट
नारियो
adh
पीजीआई
सजञ
करप
सादी
रागो
धरमी
इलकटरो
आशावादी
परावि
कसलट
तदरसत
gram
##pay
मोगा
वाया
181
कमावत
दवादश
अधयातमिक
##षया
गाढी
शबद०
अकषमता
हसबड
मसरस
mis
sale
भिक
अदद
बलकबरी
सपशलिसट
कलकि
##idabad
फोनस
इटलीजस
इना
18वी
दवभमि
dut
सवराजय
##oria
##ements
पालकी
निषिदध
institute
गोया
जयोतिषीय
वदव
पढो
रकती
same
बगीचा
नोज
उडती
पीसीसी
##anti
लससी
नसीम
steps
अवनीश
पषय
वोक
चलचितर
गाता
दिखाओ
गलोब
##ठियो
##हटी
##94
मलजीम
हटाय
चदरचड
परभारियो
बासकटबॉल
घमावदार
आमादा
##होम
कवरधा
lay
##300
कोऑ
##utions
हराफरी
consult
मधयरातरि
##वदध
##ईस
मदार
परमडल
जहाद
navigation
कसलटट
rahe
हतोतसाहित
premi
define
##टनम
अमबाला
##ily
बरहमासतर
##paadan
अची
चापा
आतमसममान
बासमती
खसरा
पचनामा
कटोरा
शरीयत
13व
मगोलिया
भष
भचाल
##िलोक
हरड
prat
##akaast
अबबासी
धमल
पचर
हरम
बाधी
जलर
तमचा
आमबडकर
मनषयता
कौट
1944
मसतानी
मजाहिद
हरन
मरदा
अभिश
आसाम
अकन
आयोडीन
भजगा
udaipur
चधरी
आनवाली
परदशभर
वहीलर
सनाता
फरजीवाडा
उडाई
परफलल
घघट
##ven
रपिड
कणडल
libr
हररियत
हरफनमौला
यारो
##0एस
##लीप
योनी
गहनो
कबील
bed
##धिपति
##ियोल
##ाइमर
सगीतकारो
training
गरपरीत
माननी
आईएनएस
पननी
498
नमाइ
गाइडलाइन
कगन
सकटो
##िफाइड
सवरगो
पहनान
##ills
चयरपरसन
रमी
शगन
##गग
वरियट
पसरा
दलिया
मकसवल
जवाबदह
consum
खरख
रॉकी
भनान
एसएसबी
डलास
station
hus
छडन
##िशकर
शाहपर
pric
सिगलस
बबीता
राजगीर
मारट
लडकर
हतयारा
मकबर
सभाए
सकटरो
##डोस
##आरए
कलोरो
##hradun
सपरवाइ
करवाचौथ
ऐपपल
साननि
##तीब
मलाला
गलफ
अजनी
force
मॉनीटर
##जोल
बनवाना
बाया
सबधियो
टटत
निशानदही
धपिया
बदाग
aiims
चरितारथ
फायरफॉकस
भाला
##ار
##वरप
सवारथो
नाहर
खाज
2021
फलात
छततीसगढी
##जती
बनदी
आरएल
पशपति
रामशवरम
##ators
मधयसथ
दागा
उमरदराज
हसतिनापर
झटको
सिलसिलवार
कावडियो
कवनो
अपाच
##dh
रखल
आजमाया
##ya¥
यएसए
बछड
bin
कइयो
बीएमसी
जञाता
अविभ
##हिल
जयोतिषाचारय
पारिशरमिक
ऐकटरस
##कटो
दहधारी
गणवततापरण
तनाली
##ईईईई
निवरतमान
गोधरा
##सकत
##was
##रोल
लाबा
चमकत
साबरमती
##बॉडी
explanation
शॉक
##िवास
कीवरड
पहनाव
एसबी
रातोरात
##roat
गजनदर
र0
शता
हौल
परिकषण
##सीज
##ोनम
एसईओ
पायलटो
आढ
सददाम
घनघ
महापरभ
राईट
तपन
परिणति
##91
हरगिज
खरबज
चीटी
during
picture
खनिजो
ईसीएस
##ओन
सीकरी
माधवी
परियार
clean
##चचय
चढाना
फॉरसट
सीडीओ
विजयादशमी
पितर
##तहल
पाठन
परमचनद
विशववयापी
##तालिका
लॉबी
आचारयो
skreenakaast
शाइ
अपभरश
dehradun
unt
aust
##पॉल
कोहरा
##वादिता
##ायित
अनतः
परशा
think
साकषयो
चिह
टाईट
हिजरी
दततातरय
राइफलस
machine
पराठा
झाडी
अनततः
समसामयिक
##िहान
##gy
पारगत
आमल
मीसा
अबदललाह
फरमो
crore
असमरथता
sabguru
खटक
मनोदशा
हसतशिलप
##ियतो
जीनो
##टनट
चोटो
थाइलड
टकट
डडरफ
core
##भोग
बलवा
मखपषठ
recomm
उललखित
साननिधय
सरसघ
##सटोन
कतितव
अभिभा
बरसाती
सदाचार
extra
इगनोर
##oon
मोहसिन
निशानबाजी
सकारातमकता
मोहललो
बिठाकर
आआआ
परषण
सोठ
ककरम
सवग
##atra
फीकी
एकमशत
##चालन
सवाय
163
उतसवो
उमीद
##ौनो
पहरा
बोइग
अहह
पराचीनकाल
सटोरस
resources
लवली
फरियाद
muj
##साम
गरामय
karana
nut
##नाट
भीगी
सलोगन
##etic
चढता
एचए
frame
कसटडी
तझस
असाधय
industry
esp
सघरषरत
bij
डडो
##84
##हाद
बरपा
otp
हमदर
उपरी
अभिनतरिया
##ikh
दवाईया
गाह
गोदी
सोमालिया
वणगोपाल
वातानकलित
cow
##तिकरण
##ugh
optim
##kn
सटरॉयड
छमाही
हटर
इसा
मनवा
नौकरीपशा
दगनी
टयबवल
नपोलियन
मजाल
राषटरवयापी
indic
बहलता
गामा
दभ
भसो
##िवा
हरालड
पनरम
बलोजोब
वयतपनन
उततरारध
##अली
होप
जाबाज
##कोटा
मिलाना
सटॉफ
सचाई
बोलगा
examination
गफाए
##जाई
कादरी
मोका
खिलाकर
गोलाबारी
रामानज
ran
आमसभा
खरची
शहशाह
कोरसज
सीआईएसएफ
fay
उबार
ठमक
##बिज
दानिश
निभायी
धिक
मनतरो
पढाए
रमाकात
हमीद
गि
##वयय
खोय
sad
##ving
##ॉपी
तमगा
सशोधनो
सभर
बसता
शाहनवाज
##गनध
पालिसी
उपजिलाधिकारी
fifa
छदो
##सटाइन
हिजाब
मनासिब
अलीबाबा
वललभभाई
एगजामिनशन
मको
यरन
लदर
##षकत
अबद
दवियो
लोमडी
1934
रिटरनिग
सावधानिया
छीना
घडसवारी
gre
शफी
##यण
##बटिग
परोसन
परारथी
वीरान
guest
नलसन
सनिटरी
बोफोरस
##टकचर
youface
सिखाती
चमकन
काउसलर
एबीएस
शरीमति
redu
गौरा
uidai
maps
लोप
डबलयएचओ
relationship
rpsc
होमस
##फीस
रायसन
उगन
पोरटर
शगार
##ply
पबलिसिटी
दिवयाका
recommend
ole
##िनिटी
कटटरपथियो
परभाष
मणिकरणिका
सउदी
हॉरन
रिपलाई
हडसम
रानीखत
पागलो
ctr
पगा
महिपाल
बलबीर
मरीन
धरमराज
कॉमप
##roll
नरसो
सोनल
फकटरियो
आशरितो
ticket
कबीसी
राजदीप
307
007
give
##छनीय
##01
लोशन
मनाएग
jagran
करियाकलापो
जयम
राजशाही
पडचरी
sem
डिसजा
1925
rat
अनारकषित
सरवसव
डशबोरड
रॉल
##aff
काची
पलटा
पशतनी
15000
आदशानसार
लबोरट
डिफॉल
फहरान
अजवायन
thanks
future
चमली
पासता
रडिएशन
वानखड
सजनातमक
vip
झकी
शना
हलाल
dj
पाह
शाकिब
छिपाकर
tin
वायल
enable
बायोमटरिक
विततपोषण
घडियो
वडस
बटस
##62
इदरधनष
कोइराला
##िकशस
टिपण
पीटत
कसतरी
बलवत
परसततिया
जलाशयो
wishes
कछए
फाइट
सभलकर
मोटोरोला
परिवारवाद
शहनाई
han
##यजन
##ोतरी
##lay
मलहार
बजनाथ
नमिता
512
शारदल
समपादित
##mark
##टीकरण
##चारित
कलपित
गाववालो
बजरी
मशगल
मिह
चिपकन
आकरामकता
kat
lite
##ring
पीटना
174
आलस
1941
मोलड
##ददार
उपसभा
मकता
कोकण
शिलाग
ईसटरन
निरविवाद
डनी
यरिक
वॉरन
##डीटी
##leep
157
फजीहत
नाटककार
default
keep
हरिशकर
पनरीकषण
पोक
##वीस
आईओसी
विशवसतरीय
जनमतिथि
डबवाली
##ibility
ऎस
छई
हअ
चोच
निषकरषो
सधाकर
भिजवाया
##ween
लिकस
##ागन
बखबर
सिटीजन
बलोजॉब
karna
##xxx
नोर
amzn
दरघटनाए
राषटराधयकष
ice
##गरिया
पशधन
कनवशन
लागल
लपटो
##ियता
पटानी
बनीवाल
340
पटीकोट
investment
issue
fake
हालचाल
मणिशकर
faridabad
पीटरसबरग
##सबरग
##मिस
इनसा
शिवहर
##तततव
टबलसपन
फॉसफ
विभीषण
सोफटवयर
फहार
##लात
डीआरडी
छाता
टटोल
दलहनिया
टिवटर
ball
उई
##खरा
गरर
मगोल
फोडन
मोमबततिया
सखाकर
167
गहिणी
विलासिता
##थीन
इलावा
रलमतरी
रोगट
खातम
शरमिला
##kho
दपटटा
ई0
जइ
##आल
करनवालो
वरल
बलराज
कारयवाह
फरकचर
मिथिलश
##ospital
##rs
##ett
अहहह
हसकर
चमपियस
161
डिजीज
फोगाट
pages
डोगरा
##सलो
##mc
ऑनलाईन
टरनओवर
##गराफ
सिगरौली
एनसीईआरटी
पमटस
ganesh
pi
##वष
सकरीनसवर
पौधरोपण
समितिया
फितरत
तरिलोक
एनआईटी
मसकरान
दरमयान
शातिपरवक
ident
kil
##ки
पीई
##esis
उठगा
हिडन
##झर
304
रोलिग
कालीमिरच
एडवासड
##0000
हाड
परकाशको
दौसा
virat
##vind
कामोतत
##सलर
सटीवन
अहिसक
नवीनता
चकरवयह
programming
एनालिटिका
##ावती
कलीक
abtak
पपो
फनन
विहारी
words
बारीकियो
झिल
हलस
बिसात
aries
फलवर
परयायवाची
कवालीफायर
वयकित
मरवा
झाकन
teachers
शिरा
बॉकसर
उठाएगी
खिचाई
सरतगढ
कवालकॉम
सिखाए
नायलॉन
नबज
##81
##पतन
वारष
हडबडी
सीएमएस
himachal
इसटरमट
folder
सगरीव
mishra
उह
ऊषा
समभाल
पलिसिया
मधबाला
तीकषण
चनदरगपत
सरचि
काशीपर
अनदित
खयात
तराज
दवबद
##गोडा
नयायलय
लगाएगा
एफआई
असतलित
आचारयशरी
यशसवी
##मासिक
turn
चपत
एकज
शरिया
लालची
239
हाइलाइट
विशलषणातमक
salman
operating
java
समवत
वालिया
दशहित
171
लहरात
गायकवाड
निषकासन
likes
छीक
डविस
वदी
##eech
लकषमीकात
जलाभिषक
चसपा
fb
##णिया
अभिजात
चटकाए
बराहमणवादी
वटिल
चराकर
गरमागरम
वालटर
कषबध
विकषिपत
रोली
कराफट
ठाट
between
वॉटसन
kid
ररल
चकरधर
पनरतथान
तमही
लीप
अमरिकियो
##other
##ability
कौतहल
सवामीनाथन
अपकषाए
sitemap
डराम
##बिग
सरवमानय
मजीद
ऑडियस
डकतो
##ко
##ियकति
परतिभति
दौडता
ऑकसीडट
ncert
earning
ax
fail
##कोडा
महती
निकलग
मजमदार
xr
बयार
परोगरा
जानहवी
बलगारिया
बडल
तिवाडी
सिकनदर
सममत
डरती
रिपर
जाजगीर
ben
अई
##फारमशन
मोरचो
visual
योदधाओ
इशवर
##हानी
सरका
सनसकरीन
चपटर
##ques
आईटीबीपी
फोरटिस
होमयोपथिक
रविक
##rap
वदात
royal
आसत
##uri
विटामिनस
successful
गडी
करिन
##वरतित
##कनिक
इजरायली
परतिसथापन
जनागढ
बरोकरज
सतयनदर
विजयनगर
लिबरशन
##present
ऊध
रशियो
पारसल
आइसटीन
letter
##कपर
##mon
पडिग
कालर
भविषयवाण
नागवार
सरजमी
पयासा
setting
माधोपर
टिट
##ातीत
poly
mantri
घलनशील
अकाउटस
##माम
##झम
बालिग
तरिलोचन
भइल
समयबदध
टीटी
##डकशन
decl
gupt
विधाता
नवनिरमाण
journal
##ao
पाषाण
वनवासी
अकाउटट
brain
9000
परतिभ
अनपमा
सकाउट
कवारटरफाइनल
अरश
वरतनी
chem
सवीकारयता
अजञानी
##fuck
अगरतला
##ोसपा
कोलारस
महलला
मरणो
टरसटी
कारडस
सपलायर
कयोकी
बीतता
पॉश
पकाया
मटनस
बलबत
परिसपततियो
##पतता
घरत
योजनाय
कठघर
टटना
विषव
टरॉली
सबनधित
##charge
##ऑन
पोखर
परोसी
chaah
hospital
##थला
##काज
अधयन
जनविरोधी
मरचट
खीचना
माइकरोएसडी
यरनियम
इशय
ओपरा
अवचतन
टरब
185
उजाड
जागो
बसहारा
सहागिन
भीडभाड
सपरषण
दिशानिरदशो
पिशाच
##नह
##oid
सनवा
छाबडा
रकतसराव
रामर
##ille
अदला
चोली
said
maa
कलयाणी
बीकॉम
रिकति
कॉलोनियो
मममो
##uge
फालक
पराईवट
pant
दवल
फतव
मनपरीत
टरल
हडपन
##sex
माइकरोन
रालोसपा
##विजता
double
धराशायी
हलको
मकसी
परयोगशालाओ
दीपो
डोप
खरपतवार
बबाकी
आजा
एई
करसर
कारगो
बललभ
मरकल
वाटिकन
1700
हिदवादी
छिडी
बफिकर
अभिगमन
hide
##ache
फिद
बलिसटिक
##arius
सवभाविक
तयागन
मनोकामनाए
अकसमात
##वसती
cho
कमिकलस
बवकफी
ber
lakh
कमबक
हरपाल
कारयवाई
बरना
लिकन
बलागिग
धआधार
एएनएम
pregnancy
धनाई
##cul
##ال
कसो
लोगा
वलल
सौपकर
फरनाडिस
टिपणणी
चचक
##यश
निवतत
##िशती
बरौनी
बढापा
1927
##vasna
दडाधिकारी
खोजशबदो
एए
फवर
सषट
##फोटो
##िएटल
सकश
सिहसथ
बढाएगा
घाघरा
रिसपास
कफरम
निसान
काफिरो
वयभिचार
rak
##रथी
होख
##दीक
bhee
##ples
ईज
टॉनिक
सनम
##तराषटरीय
वासतशासतर
अयसक
wik
xx
खलवान
करमकाड
लालटन
chop
भिन
इनफल
अलकायदा
खाएग
बढाएग
दिगबर
भोगन
टमपो
पीओक
अभिरचि
बरबस
##inger
##asia
डासिग
टमपल
रिवालवर
wifi
करकट
जीर
निरवासित
मदो
आगोश
वाडा
बिकरम
##a¤¾a¤°
mla
##टाइम
##मीत
एनफीलड
16वी
doctor
##धरमिता
टोटका
हॉरमोन
प0
गोखल
##पटटनम
##ista
अनादि
जीवाणओ
एनिमटड
हाडा
बागान
##phones
उपपरधान
सटणड
169
354
cc
cct
डगम
##oni
रनर
फरमाइश
krishna
perfect
इपोरट
काना
208
लडती
नागशवर
4500
balance
respons
निककी
सखलन
less
घई
##db
परिकष
कनडी
बाघिन
साठगाठ
professional
औन
##एट
##jri
##ियशन
##मरत
कोरइ
जयस
अधयकषा
##ाशरम
sop
भखी
जीका
इलाह
कशमीरियो
शाता
खटटी
नाकामयाब
civ
##लापर
आजस
लीची
सलाहकारो
तटबध
अमीनो
आउटलक
जागी
पाडा
चाहकर
पलाश
##सकोप
शयोपर
##पनगर
##िमस
##तललाह
भाडा
मलाल
एमबसडर
बोलिया
गतिमान
कॉनफरसिग
करोलिना
ऑब
##0सी
three
कटवा
पचवरषीय
रकवा
सरकषातमक
तहकीकात
विम
रोसटर
गोबिद
शयरधारको
चाच
हडिया
मोरार
होसटल
दबगई
jav
अलवी
जञानपीठ
डोगर
सावधानीपरवक
एमएलए
चाईबासा
सपरहीरो
##लिका
बलडर
अचभित
आबिद
टरडिशनल
आरगना
plac
डीआरडीओ
xs
रददी
फिरगी
कमाता
बरहमाजी
move
बारामला
मगाव
##fone
input
1440
##शोतसव
फॉलोअरस
जवना
partic
आउटलट
परतिबिब
टकनीशियन
एकमत
राजौरी
दरदरशी
रतबा
ननिहाल
शाव
जाब
तकन
सथली
सोफा
सघी
हलीपड
वसनधरा
शदा
समबधी
##iff
गनदी
अभियनता
सपरवाइजर
ras
ऐकशन
खचा
कछआ
परसता
ऑनरस
ठहराए
नपर
##रग
खशोगी
ऑसटरलियन
हिलात
diabet
raw
डजी
अवॉरडस
सफई
गोमास
पदनाम
रजिया
मगवा
electron
कोरियोगराफर
dildo
css
दिप
शरीनाथ
लकचरर
sap
अार
घडा
नॉक
मलन
रामपरसाद
1943
उननीस
आरकिटकचर
जलपरपात
धवजार
भारतवासी
कणटरोल
एलएलबी
welcome
औय
जोकस
अदमय
##िकसित
सटीम
विसगति
financial
गरभनिरोधक
हरदीप
रोवर
गरसण
एडवाइजरी
मीडियाकरमी
सिलकट
##shan
तनजा
फरमात
डबलस
##िटरस
पाटल
255
choose
290
##111
साइनस
पौलस
गबर
ठपप
पररा
eth
##याक
जाखड
राइजिग
कारट
वरती
पारकर
बिलल
लौटग
खिलाना
comparison
सण
कलबो
महतवका
वारडन
रिबन
परकरियाए
soci
moh
दानापर
दफनाया
सतकबीर
कफर
गबद
जाफरी
##गरही
चनो
धरत
आशाओ
mys
सतभो
attitude
आवहान
रिदधि
नयायधीश
सपरकिगस
##पिडी
##एमसीजी
इमोशन
माहातमय
much
##काइ
मोदक
inj
कसोल
पोलो
299
उरजित
सविधाय
असोस
हिनदसथान
##rain
उभरता
लहराया
rap
अगा
##dom
##पॉड
दशवासी
परसति
टॉकस
baat
busty
##jan
##दिलली
##दारथ
जतथा
##कषम
रिकरट
तनहा
शहरीकरण
mai
##ादवी
##orning
ideas
तिपाई
एडा
##ared
पचौरी
पौधार
##दलाल
##rics
शालीनता
टलिविजन
राजपकष
##िगम
सरवदा
diff
##मशवर
सकरीय
तोपो
कोलसटरोल
kohli
कथक
खता
##ych
गोलार
##ahan
चदवान
उपसभापति
गवाया
समालो
bhabhi
पीएचसी
rape
##ging
##उटस
सकडा
बसनत
##मकश
परभावकारी
कटार
लिकड
एकटरसस
निपटना
इमयनिटी
kyonki
dost
had
दखगी
गोयन
बनदलखणड
गपप
निकिता
रोकर
sony
##bharat
पयोग
पिसी
##िशान
बजाई
नौकरो
##मबरो
जझन
tube
टराय
##थरा
##वाडो
बचगी
पछग
##aki
नयायाधिकरण
कोषागार
डीपीआर
ordinary
##मदी
1918
photosh
##बदर
कराट
पतथरबाजो
tas
गसटर
लमन
##girl
##ames
नवगरह
नागरी
सियाल
विचारधाराओ
तमाचा
नॉएडा
करिमिनल
कवाट
##रोम
दरवा
##जदगी
##यालाल
जयोतिषियो
##dity
हिरणयक
बमबारी
डटल
##सकस
इसताबल
japan
चडडी
ढि
करमबदध
पसतकाल
जिमी
ओपनिगस
सरसघचालक
ढकी
पकाय
##गरता
गरिया
गटखा
सिनमाघर
जॉइन
मललिकारजन
अहिरवार
निरम
आसिया
रामसवरप
मकदद
परियजनो
थला
##तरता
बादी
सपार
सपरीमकोरट
380
बीचोबीच
रिसपॉनस
##दग
समरा
सकिलस
जोया
##ico
वॉइस
##चतना
##ारइ
कोमा
रसगल
डिसपोज
कलोराइड
backup
earth
prabhat
नतरी
##ар
जीक
रिकतिया
##ros
कलाकतियो
nt
##ौग
हीटर
शाहपरा
sha
अहित
शज
##बोला
पकडता
उजड
ऑय
जवन
बिकी
##ters
परवार
मनदीप
##arm
मतरोच
वीवीपट
अनदश
सतलज
##बाप
कोलहापर
kir
ऎसा
पीआई
पकिसतान
cover
मडिया
astrology
बीएलओ
ससाधित
कबाब
परहर
कबोडिया
##anda
अवयवो
aadhar
via
##63
तरिक
अभिम
रखाश
धरवीय
उपनिरीकषक
पहनाया
constable
sandhya
नपसक
राममदिर
सदमा
रसप
chick
सटरच
किराना
इकका
ऑरगनिक
मघना
छपपर
##माली
बरित
कटटा
शतानी
##ysis
एनीमशन
लडीज
परषक
परमपिता
उठो
परोवाइ
##राइली
नाशक
जजबात
dc
शारक
##गौर
होए
आरषि
पोकरण
नजदीकिया
पौधारोपण
sach
परधानो
ढाचागत
inspir
इबार
परतिरप
कालिख
निसार
centre
सिलीगडी
सरवदलीय
oleh
##पमट
विचछद
तलहटी
रिलटड
मथिल
##छाप
categories
बगनाह
खच
##no
##code
##परट
मानगा
बावडी
गालियो
समोकिग
सटरॉबरी
##यगा
##िदी
apane
पादप
गौरीशकर
मरतबा
कलियो
सहनी
पटरोलिग
शॉटस
##डशन
बचाती
कषो
आसरा
फटब
२००५
बकायदा
##दराबाद
सवादानसार
वाटड
उरई
डारविन
शरीनिवासन
निरभीक
##ोधन
बकॉक
##rem
तयोहारी
speak
standard
abtaknews
चीक
दोर
##zh
हरदा
##बाधा
##भारती
##परिवरतन
धमकियो
cf
##विर
##वीट
##एनआई
union
बरवा
एजिलस
रजाम
राहगीर
रफरल
बनावटी
##िपत
सावल
बायोग
ओवरलोड
मनोरमा
जञातवय
नाविक
##yap
डीडीसी
जमका
हडपपा
अलजाइमर
##jriwal
##ताकार
समचचय
गोपियो
##वाईसी
##वाहिको
सासाराम
दबला
अरोरा
सोर
परतिर
उधड
मॉरिशस
टाइलस
धवजारोहण
अका
आफर
##खाल
भरवा
अशफाक
सटारच
गनह
रौतला
खदी
शचिता
सनही
अदब
##akar
champ
सिनहआ
सीएमडी
खीचता
एसीपी
दोहराई
शायरो
7व
##माइ
लगवाए
बठो
##enger
पजारियो
उपमडल
मनम
सथिती
चौकन
परिवारजनो
एलिस
major
राजमारगो
जनशकति
अबिकापर
फिरता
फरॉम
एमब
मालामाल
बधआ
भरषटाचारी
##चयर
परबनधक
काडा
विशिषठ
जलना
चढना
चमकील
##विकास
परपराए
शदधिकरण
कपाउड
मवीज
एवी
##चली
##िलास
लिखो
आइपीएल
हसताकष
असथिया
नदकिशोर
bare
रइ
मतल
##सनस
अपरोच
173
##iful
songs
##लीपॉप
खिद
ठला
नवस
सिहभम
चारली
इसलामिया
विधवाओ
लारवा
खडगपर
bmw
a1
##बोट
परदाय
##ota
275
phones
मियामी
आगतक
परमानद
अधिकरण
अहसान
वहाटसएपप
ahmed
राजपथ
##सथलो
रिचा
गटव
गोडडा
रफीक
nag
लफज
##िधि
##87
सविका
gets
फोडा
सहरष
माचिस
sen
उबा
नाती
बबली
सीम
नताशा
हडगवार
चरणबदध
kisi
कपयटिग
फाजिलका
दवत
साहिर
मिचल
धरमावल
3डी
माव
लगायत
धरमशासतर
##मदव
ऑलिव
करकर
##सटशन
##कलड
एफएस
कितनो
चमपावत
below
did
मडो
जमीदारो
alp
arvind
पोलिश
डिवाइ
बहनोई
चमार
हशट
##शरट
##तीनी
नाडिया
यजरवद
नितयानद
1922
ईदगाह
छिलको
शरीमदभागवत
py
कढी
चपा
##ле
मोईन
दवीपस
##एफओ
गरमाहट
बीतगा
लॉनडरिग
डाइऑकसाइड
deta
रावलपिडी
गाद
चाग
235
##पकड
सौदागर
शकी
##मबी
परमजीत
टकराई
##ikaran
गिराए
करजमाफी
समायोजय
battery
टरानसफर
मालगाव
इकॉन
जॉइट
चकल
##रि
##oft
##kes
किता
183
stri
##सिबल
dipos
##जाहिर
vpn
ईकाई
##दगा
विख
अनिषट
##ater
##बलमस
selection
निकालग
##aint
अतयाचारी
शरावसती
##elfare
zenfone
dus
बीआर
परववत
बोसटन
समीकष
##ॉकसी
साइटिसट
निसवारथ
poem
धारमिकता
इलकटरान
##ugs
हारडकोर
करासिग
एसएल
फरारी
##सिघ
२००१
महालखा
खरखौदा
आचछादित
##सीएच
महिना
तमच
चारितर
महायजञ
बलासटर
बावत
चिनफिग
झगडो
नॉटिघम
कजाख
ओडीएफ
वीरागना
वमला
विभोर
कटाव
कौशलया
sarkari
diposkan
पिपल
##पोत
पारिया
सपरिवार
लोहर
##ियललाह
हजज
एपीज
राघवदर
bil
##खिया
मगनीज
घडसवार
##परवा
उलम
आशियाना
लाइटिग
खटास
डिजीटल
ig
अहर
महादलित
धोया
accident
leader
vin
खसरो
##हततर
शिकायती
उलझी
सगरर
इनबिल
आरकषी
जीवनभर
मधयवरती
मगलसतर
लिपस
शममी
##health
सीओए
cast
dick
fam
तषटिकरण
लवी
खोट
##जनित
कलहो
जगजाहिर
लोकतनतर
सिसकिया
अनशासनातमक
नरोततम
तनी
फकर
५५
##thers
315
##ances
gps
##van
##★★
जीडी
अपस
##मटिकस
come
रीसट
गौतमबदध
##मोटिव
icc
##बॉय
काठी
रीट
मातहत
abhi
राकापा
नडलस
पाऊ
गलिस
हलन
धारावाहिको
सोलहवी
पनरसथापित
कीवी
जिनन
बडवानी
जायफल
काननन
टटता
बलॉकचन
पटरो
सारिका
325
quiz
उगरवाद
करिसटो
##pi
##शच
सकॉर
रिकटर
दवदार
अशिकषा
field
परतिनियकति
वतर
फिलममकर
पदको
तीरथो
powered
रिएलिटी
अइसन
##टीए
इनडोर
निबटन
अबब
##मलानी
सपरिया
एटीवायरस
downloader
रटिगस
गोरकषा
interesting
शश
शिजो
अधिषठ
उठाप
दबाब
expert
सपाइडर
##रहित
##िा
##ईया
sud
एबीसी
##zy
कईयो
##यारड
चनदरा
बोरडिग
सझाया
पारीक
focus
##हक
पहिए
अबी
चयनकरताओ
समकडाउन
पिपलस
यकतियो
डीईआरसी
dim
عل
टका
##पोड
वरधन
##कटिका
आईवी
एसस
allow
डनिस
##ऑरडर
गिडग
इलाहबाद
##निश
##ियाग
बहिर
सलक
करीबियो
हॉकिग
शौरी
actress
परकषपित
fan
गढवाली
ईसाइयत
मरतिकला
फगल
##गनो
चणडीगढ
##ागह
दिलजीत
सटकस
##िजनल
हमदरदी
गचछा
मापी
बदसरत
अगरी
यजमान
virus
logo
##leg
सौतल
अधयापिका
वॉलमारट
सटरोमन
जिय
फिलमकारो
नीरजा
##गाराम
##मबरम
तीरदाजी
कनाडाई
अनीस
ऑसटियो
एलगोरिदम
एवनय
डमी
##lines
##वारटर
गरवन
आरकिट
मासमो
अधययनरत
might
इह
बदसतर
सवयवर
1933
सवीडिश
conditions
got
अजाब
औफ
गवानी
परट
##िनिया
अपप
वाच
उदात
बिगडा
कथनो
obc
सीएसआर
पियानो
गडबडियो
eyes
मोजा
शिकषापरद
एपपस
realme
आरटीओ
gadgets
कागो
##पनना
सलल
पॉकसो
भलाकर
##वशयक
सलफट
नजरदाज
एमवी
deg
समतिया
trading
असथियो
परोगरामर
गोयनका
डवन
दभर
##गारी
असवा
##एचपी
पाणडवो
फिकशन
##ायगा
सथर
लडगा
##iti
##agi
##aree
भडारा
वशयावतति
किसतो
सवरगोषठी
किड
आईएल
1916
मधयान
हितकारी
परोगरामस
बिननी
सपततिया
तराह
हगर
सामी
वरणा
समाजसवा
245
कसाई
आडिट
शमीम
##oes
पथर
ऑइल
शाग
##लाभ
दीखता
विभद
comb
##throat
फाउणड
चिडियो
चोदता
festival
आरख
सतनाम
##iday
उपनिदशक
kyc
उपाद
कषार
लडखडा
##ises
a¤y
गनाहो
निलम
परातःकाल
##ени
kab
इवान
##परटिव
##imum
सजजाद
मटका
अरधसनिक
अशवम
infl
बइजजती
परतिवाद
बरिक
मकबल
##lok
अजमल
scor
पणजी
उरवरको
##ан
लगकर
धरमपतनी
chall
शारीर
बारहव
dsl
##पादक
अवसथाओ
रिसीवर
पारलियामट
गमल
##भिमानी
##पियर
##ban
भाजप
251
गजनी
साधवाद
अहकारी
मिकसी
इदराणी
employment
fra
##फॉर
परखो
कियो
##िलाल
जनटिक
सनद
सनतोष
sym
बदधिमानी
950
सोनो
४४
मोतियो
##ोकति
फसाद
मराठो
कालानतर
शकरगजार
डिवाइडर
mast
जनी
सगा
सननत
अतरमन
दयाशकर
फिलिसतीनी
कामन
##तीरथ
सिबल
सिचित
##atory
हथकड
##टरोवर
पलानस
यमनोतरी
साखयिकीय
environment
3जी
चसती
भतकाल
##गशन
##गरथ
मनव
उमडी
अमजद
oem
चचा
रहान
विधायी
रिशतदारी
ऑडिटोरियम
das
गइ
पाज
##सपर
2025
##सटक
आसमा
रिपयर
जयपाल
महाराजगज
टाइमिग
peri
तरलता
तततवो
एजनसी
मदत
##भागीय
रायफल
काटता
##मिघम
हसतर
सिगिग
फरमवरक
फोटोगराफ
लोटा
कनकटर
##बाजारी
रचत
हिलन
रियाल
हशटग
##लखा
##पलब
गयाना
दशमल
छोडनी
चीखन
##illa
मथली
iti
working
cctv
धवल
लोर
चारण
इबारत
pure
गमान
पोसटो
applications
dest
##lin
रपातरित
पलकित
सटाम
##ament
##isation
##ोगराफ
लपटकर
टरमिनस
होलकर
##खवा
यासीन
सलिग
shap
विनश
जालिम
##ults
community
hav
शावर
##िनद
कलौजी
टरासपोर
##ोगराफर
मायसी
shikshak
रामानद
kanpur
मानवो
sweet
सीजआई
certific
mit
इहा
##सटरा
भाट
सगमा
मकडी
map
आभाव
खवा
जोधा
बलगम
रिकवर
गददार
आहह
karen
परशासकीय
fayde
mc
##रतन
करवानी
दिलवाल
असन
मधयवरगीय
पखतन
परवरद
##पिनियन
##रासन
##टरिया
ललल
पषपो
samay
fall
mid
ओझल
आईआर
ताउमर
बालोतरा
दवीपसमह
##बिट
##२०
करियन
अनसना
सहायको
##साहब
जनसचार
epis
परपोजल
oly
उहा
तपद
वाही
आफताब
sampaadan
काउच
कसटमा
१८५
अतलनीय
टको
लवर
##93
निव
शिवशकर
मनाता
लचील
पकस
meer
एफबीआई
802
मबारकबाद
हरिक
मधयवरग
एफएमसीजी
चतरभज
लमहो
जखमो
नोकझ
फारमासयट
आरदरता
fav
खोस
गाजी
रामकथा
उदघोष
rich
दायक
पारटन
लिखवा
फरत
एयरसल
टोप
भततो
204
वाउ
बाधना
64gb
विसमय
मटाबॉलिजम
##want
बनजीर
सखयातमक
पकषकार
लाइनर
भदद
फीलडिग
जहॉ
यनिसफ
ईजाद
कामरस
मिडल
महानदी
husband
dl
तबला
कासतरो
circular
सचियो
चौकस
लोहार
लगनश
तालियो
##आइआर
##एकसएकस
चिदमबरम
फिलमाकन
परवरदिगार
satur
ओगा
##िवि
राजयवरधन
लॉलीपॉप
हजरतगज
output
वरलडकप
##सगत
##आब
##मबिया
दषटया
निपटार
फॉनट
##wire
##ля
भीन
राजसी
206
##लोज
##सटड
इडोर
पततदार
pas
वटिकन
##ea
##धवन
##उप
कोडरमा
पलटल
##बलि
वातसलय
गोदामो
datab
murder
ez
विपतर
पाराश
बरमिघम
पटिगस
neet
##obe
निरयातको
लातहार
एनालिसट
बरिगडियर
ujj
गशती
तसा
##फनी
##याय
##गाय
##ासवामी
बिसकिट
park
opens
##ahiye
मोतियाबिद
pnb
एमन
पाइन
उपखणड
##विलकर
बराहमणवाद
आशकाओ
पादरियो
गहनता
दीरघकालीन
योगाभयास
यामी
##हिस
##ईए
अभिकरण
238
पलाजमा
कफन
ठनड
नयम
हश
##craft
##ालब
##मबली
दमपति
सिखाई
घटाया
##ooth
fans
##min
लोकमानय
हितगराही
fish
hat
##ло
विटर
२००४
इमजिग
cookie
हमनत
सिघा
दीमक
शखनाद
एसडीपीओ
मयजिकल
अमाउट
करॉसिग
रोया
अतहीन
हि०
चमबन
भिणड
##ॉमिक
पढिय
पचन
अफग
पलटकर
##वॉल
##णिकता
इसाई
राइड
सवपना
मनजीत
##ोटाइप
डीडीए
इटरटनमट
##ोगल
1914
गरामसभा
इलकटरोनिक
जतिन
परयोकता
फोम
उडल
मिलखा
बननी
गरवी
बाजा
लाचिग
##92
##kb
##सीलो
पोष
राधाकषण
भटकना
सटराइकर
बलॉगरस
एनिमशन
aqu
mand
सायक
##वरसिटी
##भतस
एससीओ
समसयाय
##ashion
रोमिग
##बिनद
morning
गोज
कलकित
जयामिति
172
speech
परिशिषट
बीडीएस
शिथिलता
अलटीमटम
##nes
बाउस
महीम
272
बहाया
जगाया
बकरियो
उगाया
##aksha
इशा
नसरत
पती
अतरजाल
एनओसी
इटरपोल
exerc
sid
औध
३००
##वमट
##pure
##kal
कोशी
##ोनियम
187
##राजयीय
भजती
variable
groupsex
नोकझोक
दाया
दसतान
##एज
काको
होला
विपदा
निबट
मतयजय
sabse
template
##लशन
##कलिग
लॉगइन
कमिट
परमारथ
बलाय
आतमरकषा
पॉलीथिन
hyper
आमा
चमा
बरडन
परतयत
डालिय
अखलाक
script
interface
जकडन
नसीरददीन
बललारी
पराच
चकरवाती
लखाकन
इककीस
अजा
जमीर
##िलाबाद
पतरक
##ette
गठबनधन
सडौल
target
##बिहारी
##चिनह
लामबद
आनदीबन
परॉजकट
ङकष
कहनी
बराहमी
चिनहो
जगलबदी
बरॉडकासट
चॉइस
icici
multip
##ायरी
##ढीकरण
leave
ढोगी
भोगी
विपरो
जोक
भारतवासियो
अगरसन
धरधर
तरिभवन
इकोनॉमिकस
released
रोगा
बिलिग
##opt
१८९
एसएनबी
मयनिस
##जयो
##वाहन
सवाग
height
5वी
cab
मोरट
मालदा
चोदत
खिलौनो
धवनियो
सदाशिव
रिसट
##बात
तोला
नाराय
परमाणो
निरीह
घनघोर
poin
उकति
शग
##पदी
राजवीर
मिलावटी
##terest
भागीरथी
लीलाओ
हारमोनल
banane
परशासको
राजनयिको
घरकर
##ura
कनवरटर
विनीता
3g
yu
अनधिकत
परवतत
नईम
loading
फतहगढ
अभिकरिया
##िअ
##wd
कमटरी
जीनत
पलइग
बलदियो
असगत
खानविलकर
##पलॉ
इफरा
डीलरो
टकराकर
##िवर
गलला
उपदरवियो
सजगता
अथरववद
मदहोश
baj
would
फकट
##hub
##ем
बलम
सटीरियो
रॉयटरस
नरसिमहा
दससाहस
वटी
##wi
चारदीवारी
तिलहन
अयपपा
झकना
1905
engineering
टढा
वदन
##तकी
कोहन
##ियरी
मचयोर
सपरको
शयरस
सीखता
सिसटमस
कतरात
softaveyar
config
कोसटा
होनवाला
अपडटस
सलीक
गयारहवी
आचलिक
за
बनाइय
आरकटिक
गणशोतसव
##eli
नाथराम
इटीगर
फटबॉलर
dream
##डोज
दरगति
अनपपर
region
कपोषित
वशीभत
rain
##हाइड
सनदरी
उमरिया
chahiye
नमामि
मोहररम
zip
उदद
हतपरभ
समाचारपतर
खिलात
दविज
कौरव
##anced
vacancy
mg
##सपति
टीस
लालन
गहयदध
पखराज
परवन
भडाना
मोहनदास
विदयापति
डीएमआरसी
कजिन
कलचरल
नाजी
सरगो
बजमोहन
परिवारवालो
शहरवासियो
सकनया
मासपशी
एरियर
million
##0एस0
lord
##पतरित
##वाकय
जीपी
1912
परतिकर
अनमानो
मदराए
ऑकटा
ger
ओपिनियन
किधर
ऎसी
##मसत
##छन
##राफी
2050
एटरपराइज
कारयशालाओ
##ारीय
यातरिकी
वाईएस
paid
फाउणडशन
##गाद
##सीबी
पासी
बधाइया
परमानट
##ाफा
##गीरी
पलयरस
निषकाम
जलमगन
गरामोदयोग
धावक
एलएनजी
dslr
dark
चसट
अधीर
कमलो
दीख
मखागनि
नीरस
मराठ
##los
दवाईयो
नाकाबदी
beautiful
तीरथयातरी
परॉडकट
नौसिखिया
वदवयास
मअ
##ras
रिजॉरट
गपतचर
वाटसन
##सपत
##06
करसियो
264
हिमायती
लहग
तसदीक
भीमसन
आकाशीय
आफिसर
even
पञच
सटक
रलमारग
cit
५१
मचात
सथानिक
212
सिनदर
सिगला
deepthroat
rubar
माखनलाल
कॉमबिनशन
vashikaran
gs
रवन
##खनी
मारगी
वबपज
पलटफार
सलबरिटी
antarvasna
पसतकालयो
अशल
छात
समीन
दरगनध
मजल
योगशवर
शाहबाज
पलासटर
पलटिनम
रिसर
आउटसोरसिग
इनबिलट
वकटर
1911
बराडिग
हाइडरोकार
परशिकषओ
mun
एसआर
ask
काबली
अधीकषण
मरदाना
डिमशिया
मतराशय
उगाई
कौमी
विटज
hit
अबार
परतिपरति
रोए
महाबली
deal
बीतत
घणटा
tx
परमषवर
सामजिक
मकाल
एलबी
अडरटकर
आओर
रिकरटमट
जलील
लजीज
##आग
साजन
##ato
अलकरण
##idge
##टोला
दवादशी
##anchal
advertisement
rd
russ
##off
und
compare
निहितारथ
##tophor
iontophor
शॉरटस
तराहि
hone
घाना
##हाज
सरोग
detail
करिसटियानो
वदाता
हडी
##ोनॉट
हरपरीत
shoot
यनियनो
महनतकश
ओवरबरिज
ठहाक
drop
##लामखी
342
gallery
##book
कोसा
मा0
कलसम
अलपश
सनाकर
चिकनाई
भविषयफल
bsf
उकर
सरजक
ठीकरा
मछआर
बसाखी
##मडलीय
बीएमडबलय
tour
चातरम
वटल
##वाटी
निपलस
डॉकटरी
डायनास
microelect
अलबम
gaya
ol
७५
निरपित
निरजीव
बाकिर
बजारा
फॉलोवरस
वाकयाश
बअसर
टियर
##ोव
##आना
कलिया
अरथपरण
लोम
लबालब
सरयवशी
1923
##head
मठा
गोमतर
महादशा
अमिट
भावपरण
नागो
saksh
gas
##men
##पततनम
beca
सिगार
वदधाशरम
paise
bri
दबल
शाली
आइटी
जिधर
##विशष
पीएसय
फरियादी
भगरभ
गगानगर
नजी
लिली
४८
##दादी
कामत
कशर
शाख
सधारना
परोजकटर
ननहा
##bian
##परमियो
दततक
चदरिका
##aji
परकषक
रोच
रामजनम
बिकता
निहारिका
झमाझम
चातरमास
विका
##भट
कोरा
##ोरल
टीशरट
तनवी
एचएएल
डिकशन
##यतर
वि०
दखि
बकफट
##amb
अहमदनगर
पॉइटस
cpu
बडबड
गनदा
कवॉलिटी
##ानतरित
##erk
##िपरी
##एसए
वाचक
समाधानो
members
मधयावधि
सआ
कमि
कलमा
295
पषपक
सलसमन
नशीला
microelectro
अटठ
मसतद
१०००
लचछ
##नातक
सकचन
हरफर
एनक
लालायित
हिमश
कॉरड
बवफाई
दणडित
लबरज
मलबोरन
aksh
dd
##बय
##धात
##कासर
कमाय
##डरशन
चीता
232
शिवराजसिह
रामनिवास
जठमलानी
mujhe
ताग
##tube
जनरिक
लील
लमबित
अशवतथ
शकसपियर
उठापटक
meerut
ओगाजम
jpg
डफ
पासबक
##अलग
##वाडोर
जिहादी
इषटतम
आपततियो
दवितीया
father
##तमान
बरात
जगगा
हथिया
syl
शारदीय
जमालपर
sanjay
because
कोडिग
##ised
अपरतिम
17वी
agra
पोसटरो
राकषसी
रणनीतिकार
हडकवारटर
कौटिलय
famous
pane
ईय
##erv
एसटरो
##usion
डाइर
solar
मरणोपरात
छटी
सोज
##ायरो
इनफारमशन
inch
##गोई
सामयवाद
##ratri
पिघला
four
##yanka
##ावाला
अनकपा
सवारो
सझाए
इकटठी
शलोको
वडा
मनसा
उतकीरण
##anth
कसक
गौहर
एडरियन
वधशाला
लिफाफा
किशतो
certificate
cin
झोल
##गला
हमश
धरमपर
upi
पलाव
secure
हसतरखा
draw
were
फिनाल
##hal
समज
जबली
मखपतर
अरचि
##alpur
लोकगीतो
उततरोततर
सरवपलली
##oto
##fox
सटामप
mol
कलगाम
बरॉक
सपाई
अपनापन
चरख
नोरा
safe
उतपररक
puss
नदिता
काषठ
##दरनाथ
हाकिम
बालट
पचततव
मलटीपल
##बियाई
नगीना
पिघलन
किवदतियो
fill
फडक
पीती
मनचाह
शकराणओ
bcci
kol
इटस
औद
बकरो
विकला
रोपाई
news18
दादर
रवीनदरनाथ
भरषटाचारियो
नदलाल
##वही
किचित
रगिग
चरक
रामचरितमानस
बिचौलियो
खमभ
नफ
पायर
अनभत
सीपीय
डालनी
##विदयत
##गढी
हकमर
चालित
##ipp
परफललित
पनत
ओरिज
डीएन
##पसिह
215
enj
gi
##ठर
##vast
##चितरो
विकासखणड
सपरफासट
सरजपर
भागीरथ
धधली
कठिनाइया
रफरिजर
लिवाली
communication
##वको
पदोननत
कशरी
तपती
मनोचिकितसक
sent
एएल
मनगढ
कलन
दिखलाई
नवली
अयया
write
सअवसर
##डीएमक
corporation
कषोभ
ओहद
माधय
परवरती
pradaan
##लीव
परानतो
##ocol
शलष
गोपीनाथ
कवाटम
ऋणी
६५
##पियन
रखवाली
परवतमाला
धनर
चकाया
वोटबक
##िगोचर
सौदबाजी
कजाक
बतरतीब
database
##पनी
सीटर
फासीवाद
zo
४९
रलस
रचनाय
बौदधो
ncr
fal
चिशती
थिस
साजो
##वाइस
निरदि
मोचन
एयरलाइनस
फॉसफोरस
तपदिक
इजनो
आसमानी
नईदनिया
अतरा
बरागी
बिली
बबसी
pressure
civil
करइ
गरनाइट
लिखिए
मसली
औषधिया
##सावा
दीगर
##वलकर
उपनगर
कचला
आशरमो
load
सीएसआईआर
तकनिकी
##टब
दसवा
अतयोदय
पोली
##edy
लोई
##िफायर
kmsraj
इटरी
सटॉकस
पटौदी
रियाद
demand
fashion
##िगी
##во
तमब
एसटरोजन
##वसकी
##तानत
बयावर
visitors
धिककार
पयाल
##82
इनर
##पीआई
पलडा
धाक
साभर
एसप
भटका
##ieve
##यबटर
पिछडपन
भटकान
peh
यशोधरा
हचबक
rav
##लॉजिकल
##मनस
उदगार
फलका
अतरातमा
घोसल
हाईट
तकनीकि
धमम
भोजपरिया
सयोजित
बाझपन
aip
कलजा
मरदान
रगकरमी
महावरा
##akarta
खोदन
##ubh
किलिग
ebook
इबर
जरीय
बलर
विभषित
कालम
डरना
धीरधीर
performance
types
कॊ
डकोर
##ासकीय
##oti
लौटता
गलाटी
हनमा
इलकटरोड
##anger
भददी
उततरारदध
##कदर
a¤s
ककयी
franc
घमात
maik
कारनिव
period
सानी
बनकरो
निरजला
फसकर
आयतो
##पसन
243
मिटन
मथस
परायोजक
मशीनी
खरगोन
अपग
roj
तिस
तितर
लभ
##ef
सकव
मझोल
छोडगा
जनमसथान
पयारलाल
गिननी
दिहाडी
बोरडो
गझ
टाला
##तवाका
महापचायत
बगलामखी
बलॉगगिग
उतारत
सकषमता
टसला
यका
लकषदवीप
दबाय
##ester
addit
भयया
बधनो
बशी
##ais
##ालट
एकरा
पाखी
लाट
आयध
सारनाथ
कटहल
chatur
टोका
टरासल
##शिकषा
ककषो
##ually
याजञ
चदी
जकात
वीना
खोटी
पललव
विसथापितो
समभवतः
##नमा
वाश
##बनद
हकक
कराधान
नतरहीन
अभियोजक
मोरारजी
रोगाण
hiv
करोगी
##लाय
टरिलियन
निकालो
घोलकर
sopht
धवस
##px
##weet
कोलो
##रीकत
इनबॉकस
गोवश
जिलाधिकारियो
##abha
दधवा
फोरलन
useful
बिछाकर
तालिबानी
जनसमह
सटरटजी
sophtaveyar
अशा
सथगन
परीकषित
परसवारता
फलित
सरविलास
निशक
अनतराल
dial
दवस
##झिम
##ामानय
अपहत
मालवयर
फाक
हथियान
लानत
मठो
430
चडा
घरणन
गददा
रटिना
##गणित
आईटीसी
##जवलन
asth
permission
खिदमत
पाराशर
od
महासम
##दवियो
डिसऑरडर
portug
कोमलता
खिनन
डव
सोग
##फाइल
बदलगी
##ातमकता
दसतावजी
sched
a8
##डीय
नरन
##change
सटारडम
अपीलीय
मारकशीट
लबोरटरी
थामा
##hary
लतीफ
नवरातरी
developer
2a
डियर
##फात
जीआई
सतव
सरववयापी
फरीक
लमहा
भरतसना
##def
a¤¸a¤
customer
pf
pour
धबबा
##काना
परपच
तलत
सदढीकरण
चकना
उलका
asi
आराधया
पिसता
normal
##video
##0सी0
पलटफारमो
ढलन
थकस
हॉन
##पॉट
फलना
गलल
डीटीसी
मोहभग
अटकी
एकडमिक
शिलपकार
##सीब
##emon
आदोलनकारी
##a¤¾a¤¨
##a¤°a¥a¤
निरदिषटीकरण
3a
mel
mist
ओटस
##सज
##ससर
दरियो
अलकजडर
कषतरियो
आईएन
##एमआर
रामलला
पाचाल
राषटरहित
##शयप
परिचितो
##ताली
परतियो
चापल
unique
disease
flo
ways
विमद
अबाती
15व
पचो
जनसाखय
भीनमाल
लसी
जीसस
##याराम
धरपकड
cream
हबह
ilaj
कवक
भडिया
##इटर
सीवज
परिपथ
बरखी
उततराचल
##विकार
660
evm
बरखासतगी
दषपरभावो
giv
##rad
सवसतिक
पोसटल
डिजायर
आइना
परसततीकरण
मौलिकता
could
##3e
रामक
दहिक
दषटिगोचर
कॉरपस
किशनगढ
pune
bsc
आरशी
कपटाउन
नरतक
निकलवा
खरीदनी
पावो
एआईए
राजकपर
अटारकटिका
dan
##विभ
आरबी
अभीषट
मकई
stick
बिकती
पखवाडा
अभिभाषण
fem
xl
कशन
खणडो
##ईजी
समटन
##परोत
सबसकरिपशन
15वी
504
आइल
सजाकर
विजिटर
राजशरी
##ोटी
जानमान
मदय
सवीकारन
तनहाई
अनिवासी
fitness
vitamin
db
por
ईशन
##णडय
लोदी
टवीटस
इलकटरिसिटी
परयतनशील
अधरो
विशषतः
सरवजञ
झटपट
समोसा
चीड
##mv
एमबड
विनिवश
सिकदराबाद
um
##गवा
उनलोगो
एफआइआर
डोपिग
पठनीय
सयमित
इकन
##aur
विशवासी
हरया
हलवाई
याचिकाए
limit
धलाई
लगाएगी
इवन
चभन
बतक
##bu
तरिज
जगआर
403
शरमदान
बिठान
रतनाकर
reduce
तका
##वषण
##लाइड
##मतय
अमोल
हाइपो
##सतीनी
दौडना
hdfc
परोबशन
करोसिन
४३
राजशवर
लिसटिग
मटिक
शरमी
मोबाइलस
सगीतमय
ऊह
##ियानी
बीईओ
बहउद
आतमबल
विशवासो
धमनी
इशरत
united
पोटिग
राइटिग
powerpoint
एकातम
vaj
इमल
राशिया
सकम
सहपाठी
sus
ठानी
बरियर
पडिया
223
सवारियो
##a¥ˆ
अभिशपत
diabetes
gro
gha
कनी
##lam
निरोध
olymp
नजा
वचर
##मगल
##cut
##ру
##ियक
बनवाय
विकटर
जायसी
मालटा
उदाहरणारथ
कलासिकल
करिकटरस
acid
##car
##िलाती
दिलवाया
मीराबाई
##पलबध
वीभतस
किशोरियो
लिपटी
मसकराकर
टराजिट
##भजा
इसफ
##िनगर
##शाबी
##बदाना
##टकन
मनोवतति
टाट
साईज
discuss
ओटीपी
जकलिन
##िएस
जसाकि
नकारना
कोटदवार
वचितो
धारणाए
जहमत
अविरल
पराशट
मावा
सरयगरहण
##कशदा
disk
सरीनाम
परिशदध
डीआरएम
वहिसकी
cable
हात
कोको
काशत
वरकस
जबड
##बरक
भरिया
अमरदर
आयताकार
लडाको
हितधारको
spir
तयागकर
१५०
हजा
##१०
चलानी
बलपरवक
तलव
जिदद
##पोशी
ठाठ
एसओजी
bihari
परतिभतियो
baba
चकरो
छोल
सधारा
##لم
समातर
##कास
मशविरा
##यलटर
परमाणिक
मिठाइयो
##a¤°a¤
चदव
वगास
##arth
सहदव
फीवर
हिलाया
इककीसवी
डायनासोर
##डडा
19व
concept
isis
शिकषिकाओ
शातन
डायरकटरी
grand
##cript
एटनी
ओबर
##रोग
##चढ
##ौजदगी
पडकर
पोकर
कतिका
spl
अपडटड
२००३
माउथ
वयापर
webcam
सरजमखी
टचसकरीन
hab
राजमाता
मदल
बाजपई
लाईफ
डिकशनरी
कवाईसी
सकडल
बाजर
##िकोतसव
##imate
चतडो
वशवाद
##शासतरीय
ककिग
पाठयप
सौदरयीकरण
यटिलिटी
१८८
excel
टकनॉलॉजी
फकस
##hd
उतसरजित
पोता
gradu
झलकती
license
nude
पतीस
शमस
##गिट
तरटिया
शरध
नाममातर
एमएमएस
##टकम
too
218
रीचारज
बाइट
नीलश
##गाहट
रिटरनस
आसतिक
ऐकटर
गलौच
विधया
डालमिया
वयापकता
जीतग
exe
दिगमबर
सयाह
मथयज
शकन
कापन
समॉग
##ायमान
वजनी
करवाएग
टीवीएस
बागड
spot
कमयनिसटो
धरोहरो
bitcoins
निषठावान
dab
##pc
बिलाल
सपरड
चाटा
मसतदी
सिसकारिया
यदद
सनाना
##िमणडल
जीवनयापन
भजाओ
prepar
ढढता
हारमोनियम
सलिबरिटीज
possible
रजामदी
iq
pil
##नई
##pre
राजघर
चमगाद
दरशाए
1926
edition
सतयारथी
thoughts
ऊउन
कोपन
अनारक
##यमट
मारकड
अशदान
single
काफरसिग
वीवीआईपी
वलिडिटी
squ
ऐठ
मफी
लिल
राजमा
meg
कडदान
instant
pinterest
एबस
टविन
ढहा
रटर
परयनत
एडवरट
आरयावरत
मसटर
##ention
तलाकशदा
सिखन
minutes
आवाम
पीठासीन
एडीज
एनसीएल
अलफाज
चशमदीद
cv
pow
फौरी
ह1
##साना
##इनो
साडिया
लकडियो
##ोलित
मोहरा
दतयो
एलियन
अचत
परियतम
मकररर
विशवशवर
रिझान
लर
सराज
##माश
बरसलस
ससकारी
सखविदर
मलरप
##िसटो
##ounter
मदाकिनी
सजञानातमक
करिशमाई
नॉच
राजयाभिषक
जरास
##जियन
##hol
हमिल
परशिकषको
शटआउट
जालसाजी
tre
vrat
##भासी
##बकम
अनादर
manage
##ected
sharing
अभिलखागार
##list
बीजी
उपविजता
मलठी
tha
हटत
वाजिद
एमर
दउ
##मताल
##ante
वानिकी
उपदशो
महाकाली
शॉन
##bn
टीट
##डनट
भमडली
sheet
##लाइफ
विनिरदशो
photoshop
रशिया
शिपरा
##pan
##ाइज
घोसला
246
216
regular
सीजएम
ईशात
administ
पचीदा
आअ
करव
होरी
समाल
बलवीर
सोप
211
सहलात
position
ओतपरोत
दपटट
vijay
chopra
##रकर
कलज
बिलव
वनदना
भोगना
generate
pok
ladki
bik
बितर
यसी
##रोस
##सतय
##घोष
रटरो
एडमिर
गठली
alert
दमण
##overy
विसफोटो
firefox
तरमासिक
बताइन
कषीर
महामाया
पयरी
client
dash
ts
जोनास
सललर
बगलो
तहसीलो
कौशाबी
बाधत
apkpure
बादशाहो
विशाखापततनम
jyada
##ाइना
1910
सीनटर
पगली
थामन
फाईल
202
लकड
लडखड
घटाना
सलत
मागकर
बटल
अचलो
आलिगन
यारन
बिखराव
अकडमी
टरबाइन
लोहरदगा
अनारकली
tig
खति
##04
तरिगट
टीचिग
##टोली
चदरगपत
आइएएस
##gg
##खच
मीलो
गदद
विजट
एकससरीज
राजकमल
arrested
ze
##pat
##डगा
मनमाना
नहाना
अमानत
हिमालयन
ctrl
लपित
वकशन
##रोत
बिशन
टीजी
पछकर
##hta
##uki
मरयादित
डककन
अविलब
growth
asthma
won
टोड
फसत
##रमित
इटरकटिव
धीरनदर
बलोगर
फासल
##ructure
##ва
##सटरीम
भरि
अगवानी
कॉक
झलकता
मारश
बोरो
छोडिय
dekh
सरविसस
अणणा
a¥€
धरमगरओ
अनरगल
घिनौना
इडी
छथिन
##यतो
##ced
मिलस
बताल
अवत
किससो
गोशत
discl
इणडियन
killed
पाटलिपतर
lot
आसनन
फरटस
कारयकरतता
झककर
independence
उचछ
छता
छालो
##णता
##des
निरोग
##एमओ
परदष
पडितजी
##cont
सलयलर
##ढय
धमकत
##berg
ढाबा
पॉलिटकनिक
ket
मफल
वोरा
पहचानता
##ौलिया
टहलत
ऐक
228
##धयापको
कनयादान
कमपय
दीनानाथ
घबराकर
kg
wash
कडियो
करबियाई
बहिस
पतरिया
##षठियो
आतकित
फाइलिग
##टियाल
सपननता
विकलागो
दरवयो
भारतद
शरीरा
सोपान
आरोपपतर
##cher
कॉमरश
##used
हितश
डोसा
कथनी
confir
सपलीमट
अपनआप
भगवानपर
हटात
दवनानी
दलीलो
##जीवि
मसब
पषपाजलि
##oji
##चिहन
##payee
ign
डज
लभावन
परिन
तरकश
बरमह
परोफसरो
सजीदगी
schemes
पराचीर
बकरार
कालो
बनवाकर
##ोलकर
सवाभिमानी
बरकर
अलकन
अमली
उपचारो
375
वाघला
put
pesh
##वग
लकडिया
खलवा
सखपाल
अशासकीय
दोषपरण
हटाई
दिलाकर
बपत
कारलोस
टीचरो
चरिटबल
एनआईसी
गहो
सरवोदय
##ologie
वियर
मरसथल
गलानि
झाकिया
आवरजन
इलियाना
जगमगा
sag
##गरण
बहकाव
एजॉय
ढाढ
1908
##पीसीएल
bengaluru
दवाल
##वाइज
वहॉ
परमाणओ
यदधा
##anta
अशोकनगर
पोलिट
नानाजी
messages
कतन
निरोगी
रजियललाह
relig
mouse
डराय
पतरवध
विशवविध
रौब
obs
शीतलता
मफीद
धोत
##कई
##मिज
टरकी
निकालती
##पोरोसिस
advertise
original
audi
यत
##गआ
##goo
##योचित
##ावतार
unlim
clip
weather
मडरान
##हसत
##ओर
नीक
दिनोदिन
वशजो
चिकितसाधिकारी
निभानी
नीदरलडस
आपततिया
छिटपट
pg
लयक
##सगिक
एकजीकयटिव
परिसचरण
a¤¼
##indra
कालाबाजारी
भटकता
viber
परामाणिकता
एचटीएमएल
nat
परसाई
शिषया
##berry
टरामा
मोहलत
crpf
डायलिसिस
##ски
वराह
रायता
सरजना
अनरथ
विकि
##गलस
उमडा
सहागा
501
गयारहव
girlfriend
पिलाकर
मॉरगन
मानिकपर
कवट
ढाला
शखा
मजरा
तलक
सोनपर
213
खरीददार
साइपरस
फाडकर
adobe
compl
length
दोयम
परिचालक
सपरा
नौनिहाल
##uring
आयरिश
बसतिया
बाधयकारी
element
cashback
पदसथापित
ढिललो
नकर
##कभी
##net
##bse
##लाख
##ाहत
##दशवर
गणाक
लाइकस
अधयायो
capital
ताइप
motorola
##लश
##ङी
##साका
लगनी
इटरसिटी
एचसी
बनधओ
required
मिहिर
शिवभकत
##elu
चरमपथियो
##पशप
परासनातक
चबाकर
gyan
rock
ра
##सरस
##िशरण
लगाइए
असार
भगिमा
अलीगज
एफिल
डिसको
डोनर
radio
अधिकाशतः
टडी
##yak
दिलकश
बठगा
सफटिक
आरमभिक
पिचकारी
ईथर
सटशनरी
परजापत
रिमझिम
वहीलचयर
ऑयली
##सख
##eat
जामता
उनकर
हरदर
उठग
amount
असमिया
कॉरप
##जीनिया
एडमिरल
##uel
परिक
staff
बलाता
गडबडा
##नालिटी
समगरता
परोफशनलस
मयनिसिपल
corn
##ामय
पहिय
तररार
अवरो
परिवारी
डा०
विधानमडल
पोसटस
हमिलटन
उदशय
रिनय
##णित
परपल
करली
बनिफ
##chi
गरमौजदगी
करणाल
आईडीबीआई
ताडना
दशमलव
कीपर
अनदाज
परदशवासियो
आईबीपीएस
##बिजली
इग
रढियो
शिकज
परोवाइड
पनिस
मॉइस
आनदोलनो
pras
चडल
##विकल
हमास
पारख
ओरछा
बराइट
हॉटस
अटड
उठाएगा
कासपट
कतलआम
कायरता
मयट
##droid
##टीओ
##डीएल
मोरी
पचामत
नकपा
विलो
ae
दानी
हीना
वहॉटस
परापरटी
भरवी
खलिहान
उठाव
आनाकानी
मधयमवरगीय
इवटस
मनगढत
कशियर
##चलित
##पिदर
streaming
लपटाप
गपशप
झरो
फिफ
मदारी
बरिया
अवसरवादी
आइडल
पौष
भलाया
दादरा
बलोगिग
ओलावषटि
##ममह
##nam
##दज
उपपर
बनाइए
परणालिया
छिपकर
##247
बवफा
अाप
झरिया
भोक
##टाड
परोगरस
चील
नहाय
रॉयलटी
तनालीराम
unlimited
जटन
शबाब
कारवाही
सीडबलय
बीनस
सनस
##राजपर
कटरिग
खटखट
adhik
fight
tom
गगाराम
##खस
परादर
शरशाह
निरकारी
बलनद
नापन
##una
खशकिस
आतमाए
फरडशिप
एहतिया
push
##परवाह
निरपम
आनवाशिक
गाढ
जायका
आखया
अवतारो
वयतपतति
talk
बरितानी
जामताडा
##ole
सिरी
बचमारक
आरईसी
##चितत
##screen
सीसीएल
नावो
परोपकारी
परॉडकटस
##रहमान
कीमोथरपी
दहान
विवो
पताका
बराडस
308
मिलनसार
deuts
237
##फटिग
##hen
अनचा
इनड
अपरासगिक
सिघम
character
aam
अमीरी
एमएन
समपादकीय
##बाइ
विशवसत
ताबत
##next
बोझिल
कारीगरी
भितति
गसता
##वदा
अवमलय
बगदादी
##veer
233
परतिबिमब
gal
##ङा
दोसा
अबराम
कलवर
बरमहा
दिखानी
भौचक
sense
इथियो
दसतर
लीव
दौडी
265
गौडा
सवचछद
नीलिमा
पिलर
गरदतत
सरदसाई
cgl
collage
एयरोसपस
library
गिनन
##मतरियो
समभाव
दनवाल
दाभ
हडली
उपनिव
string
पारिसथितिक
entry
practice
सभाव
करततो
आयतन
##idence
##aks
लाइनस
सावली
टनल
छपकर
महकमा
director
सषटिकरता
jin
४६
हराना
##विदित
301
##समय
इनदरिय
अभयारथी
los
##यगी
##05
किसल
साडियो
मारियो
पछगा
##oli
नादान
पोषाहार
##पनिषद
##ियटस
गरिम
मरझ
असपश
गोठ
मशताक
अदिलाबाद
गजानन
229
##astic
माइकरोएल
languages
डोनलड
दरमियान
परिर
##साब
रखवा
कलॉक
##leave
##बोली
youth
हसान
begin
सचारित
टोब
दिखाएगा
सरीखी
##यगीन
अधिषठा
मसबो
खोलती
ऑफिसरस
एशज
परिकषतर
कॉमरशियल
fro
poo
नमार
##yz
##रणा
गडगड
पॉड
इकक
plans
तारामडल
असाइन
अकषण
यमला
करबियन
##बाट
चनरी
चाड
सटीयरिग
##isha
front
तरिपर
बिमसटक
gupta
बप
##ॉनो
कलफी
सपिर
नयापन
सगराह
वनिस
##कनदर
api
भाषायी
distrib
advanced
रिकारडर
##time
बीआरडी
सफलताओ
रघवश
परफकशन
करिपटोकरसी
कलाइमकस
b2
यती
अनषठ
कमद
##ागढ
##पतिया
टरजरी
मलवयर
पोददार
सभाककष
मानवदर
आबटन
जोशीमठ
fd
थकत
##ानतिक
217
मारगदरश
पीसीआर
unit
फासीवादी
##थरी
एकानत
##करट
जलव
##इटिस
##वकता
सरगरमी
bon
अयब
नहल
पगार
पोरस
##kha
बहकर
##िदाद
दमखम
जोखिमो
अविनाशी
टाईप
परतिदवदवियो
धोखबाज
उचचायोग
शशिकात
aas
##वाकिया
बाबाजी
रामराजय
गजराज
इटरा
वचनबदध
##yporn
बरजभाषा
एनालिसिस
वदर
##a4
##िसबन
##षटता
जलधारा
जसिका
##state
शाबा
शाहीन
लॉच
रिटन
डीएलएड
upayogakarta
इफल
एडियो
उपसरग
मनवान
परापतकरता
समसन
13वी
तिरछी
rojgar
दधार
##िसमा
जागा
##िरन
##पीडिया
191
थोपन
219
तालका
रचिकर
गारडस
अभियताओ
ty
##oi
तरना
कालखड
##गजम
एजिग
हारमोनस
सबरहमण
एमसीए
डोनशन
suggest
jump
##नीशिया
पटागन
साइमन
सटरलिग
##aire
रोडमप
अननदाता
बझाकर
नियाम
जरनलिजम
बलीडिग
पिलाई
##aar
करदाता
अनछ
फररा
उममद
जलाय
##शासित
सयदना
दोगन
दोहराना
veget
जनसाधारण
यदधाभयास
आडियो
टहन
##इप
##बोर
कमसटरी
सीरम
मझपर
मागग
कपरथा
##रदास
आईटीआर
नाजिल
मानवतावादी
हयरसटाइल
कनहयालाल
लादकर
a¤°a¤
३२३
##page
##सनन
नारव
पोसटपड
एशियाड
नागपाल
फलोटिग
भणडारी
ranking
गलदसता
चबक
बमो
कोम
shot
jokes
हडलिग
##एमआईएम
फिलिपस
उदयन
लीना
##बनस
नारन
कववाली
##मपियो
##हहहहह
मरखतापरण
आरकिटकट
dance
खारा
ललन
बलयर
जलाला
टरडर
फलवारी
बिलड
समरपर
indones
जोगिदर
पनासोनिक
educational
खमा
पथिक
##bon
कोढ
कोसत
##जनस
माधवन
contain
डाकओ
उबाऊ
jack
मिनन
अबझ
चयनकरता
कडाक
२००२
हफी
##gan
##हाआ
जनलोक
दशवार
माकल
##aha
तरकमन
बदधा
माइकरोमकस
डोनट
tutorials
धनवतरि
coin
उडिया
सानद
बनियान
सिदरी
पराकरमी
feedback
खचाखच
निवदिता
विमदरीकरण
ओपक
डिए
##जई
गरजन
हाक
##गरहित
param
उबलन
##परभारी
sympt
गोक
टायल
दिवार
##दोलन
##साफी
एलकोहल
परिवरत
विलोम
documents
कसलटसी
माइकरोएलकटरोड
पटस
पीएमसीएच
डटकर
नासर
picsart
kav
kill
यमक
##यकमार
चितराग
##थोरा
बरजआ
##घाटित
दरगश
परवकताओ
तषटीकरण
विना
##िसतरीय
डरकर
shak
не
गधरव
चखा
##करघा
एलिम
scient
उकसाया
chaahate
##गध
बचो
पराधीन
पदवी
महाश
हडमासटर
22व
शविग
गपताग
##फरटबल
कातयायनी
समीनार
अतरी
थॉम
##ियरो
##aram
##िटिक
जसता
धीरभाई
एचएम
अननकट
महाकालशवर
सललललाहो
लोल
पाकी
वरज
पारषण
सपश
गोणडा
fraps
इमानदारी
चिडचिडापन
हटक
##िशी
##डरट
यातनाए
घिनौनी
सरचिपरण
एडापटर
आकतिया
सधान
सताल
कषत
##रामल
शिशिर
पोखरण
भमडलीकरण
cas
शवाल
1913
दाउद
सीखो
पडोसन
तरिभज
macos
उकरा
##pu
##झड
इनोवा
भलला
दरशनशासतर
चमपारण
डीडवाना
negative
पारटनरस
अवमलयन
##ासटर
##िगराम
परसनालिटी
raipur
##शीन
##ية
कराव
##राजा
##डीएफ
हरदम
अरधन
अवयकत
सननाट
उदातत
jnu
गजी
शिग
##शई
सरपलस
रातरी
##िसटिकस
मिटाना
परचालन
आकतियो
औपचारिकताए
hoga
##तिय
सटराग
जलमारग
परसततिकरण
following
फिरोजशाह
processor
faq
width
धवजा
##जगत
##बिहार
सवछ
लडो
कालोनियो
noida
offers
परॉबलमस
वयगयकार
milk
मणडला
परोवाइडर
आरशीवाद
जती
##शड
राबरट
यनिफॉरम
समझाता
कोटदार
तगडी
paste
##दली
बाहबल
गलर
##हासपद
##uses
भमिहार
निपाह
शीघरपतन
जकब
internal
##wara
ayurved
disclaim
3f
##िशल
सदक
season
भमिहीन
##anner
linked
हरिशचनदर
डपली
बकरिया
लदा
##िती
साए
##परानत
कलड
चरवाह
वाइपर
एजकशनल
##चिपा
अबोध
पतथलगडी
करिसटोफर
नशवर
भडो
##ोचित
पढगा
खरराट
पोलारड
एआईएमआईएम
इटीगरटड
kl
sank
об
डयक
गोलग
कौआ
friendly
सटलमट
ld
mere
शभा
##ढो
जोडियो
गोसाई
अतिशय
समतलय
terror
mine
काबा
##ाजय
बीहड
जनआ
##िशक
##कटक
सवीमिग
##हिद
##يه
परबत
1915
बदलनी
2100
मकसिकन
सदानद
vista
परकलप
अरसत
नाडा
नयौ
बोपनना
##ova
nowiki
अनशासनहीनता
##edekho
##mg
साबदाना
चाभी
लटत
नयायसगत
बशमार
बाथटब
वदानत
खहरा
##डलीय
करवी
जीतगी
सकरॉल
usa
ढाक
मटिस
समरणीय
##कदमी
sarkar
pricedekho
vast
ठगन
शदरो
काटरकट
सवप
तलखी
reader
चिपचिपा
एकसाइटड
dual
len
छरी
पोन
##olar
खराश
accept
john
अऊ
डिड
207
सचचर
भरनी
आयामी
अतीक
tam
उषमा
अभिकल
अवल
बसमट
बकशी
अगसतय
50000
पोटाश
meeting
ढकल
आपलोग
विकटो
अलगअलग
तहखान
सजॉय
मसकराती
अनाथालय
disclaimer
##िचित
##चारिणी
मानसर
राजनगर
agree
rules
मतपतर
पिछवाड
मीशा
गोरिलला
गगबग
ult
हिचकिच
दपहिया
पिसा
##अद
दरख
बोई
हारडी
कोचो
ओमकार
गोन
न0
##nai
##ायरा
अनवि
जीए
##ential
वारसी
उतरगा
नवरातरो
तथयातमक
फिसलकर
एगरो
रफा
कमपो
मौला
भाता
दषटी
##पातिक
शभकामनाओ
jod
ढालन
सियोल
अनयो
शरगिल
##वरथ
सखोई
##भगढ
पकषकारो
जटाना
खीचती
शारप
बहिषकत
yahoo
वारषिकोतसव
टिल
##फोर
##ातम
फरकलिन
अरथी
##लाईट
##istic
साइटिफिक
पॉलिथ
465
640
##ोचम
drink
syllab
लथर
चाहर
आरए
##ascript
अमलीय
कौशाम
खतना
intel
beta
mou
##सिग
सवचालन
बनक
##बरटस
गिरफतारिया
सतयवान
वाययान
##verter
##ports
अरथशासतरियो
बकी
शसतरो
अनसल
बनल
पिछडन
एटीना
गरीनहाउस
परकटीकरण
अनबधित
dns
##fs
साकिब
निबधन
उठायी
फोटोक
कतारो
दमनकारी
माउटबटन
##धवाधर
भराव
##ियोन
मलटीन
##मारकट
mandi
दकका
कामनाओ
टयनीशिया
अवाक
अठावल
ठोका
रजीमट
bijli
##ij
सीजर
बिमल
बसध
बगस
हितकर
तटवरती
अमलता
लोहडी
परवाहन
##पमप
अनट
आदिकाल
शखपरा
फलोरिग
functions
ngo
थकन
तकिय
दरदरशिता
##जीएस
सिमित
मतती
मलिगा
सनाधयकष
226
हदद
टटती
पररितो
भाती
कापत
थायर
##दरज
बाशिद
पनरजा
सरवाधिकार
कायनात
technolog
##जादा
सीएफडी
मीमासा
भाजपाइयो
pt
wp
भतल
seed
महानगरीय
गारगी
लीलावती
होसटस
##lands
duration
##बरालटर
खवाबो
qr
फोलिक
सथलीय
##style
परोकार
एनल
कॉलजियम
फाफ
धधो
हाइडरोकारबन
४७
राजकिशोर
दरह
सीस
##जनिग
इकाईयो
माओवाद
मारकणडय
जठानी
विशाखापटटनम
ahmedabad
हप
##जादी
बाजारवाद
भटकाव
गलाइ
कणठ
कीजिएगा
चमतकारो
निषकरियता
ठगो
##मई
याची
दनदारी
मारगा
बजता
विजयवाडा
डोरी
शोधारथी
किताबी
##भो
सरनम
याया
परिपाटी
सहवास
एससार
पिथोरा
##धनय
खिलली
अनभतियो
a¤¾a¤
फरनाडीज
akh
पियर
##डरी
##षयक
विवर
##गरभित
कमयनिकशस
ईसाईयो
खालिसतान
बपरवाह
कौशामबी
tro
ककी
##och
##ball
##पाप
फरको
महारथी
मसकराता
पीओवी
##wards
नाभिक
खसारीलाल
5a
sleep
समाया
सकप
कारडो
कषा
बिपलब
कननर
कठित
भटठी
विरदव
##dsky
सपिनरो
हरजाना
निविड
मारिन
तमम
##icle
ऑफसट
बोया
##ilt
एटीपी
अनाउस
complet
डिफडर
बगीचो
चौरासी
अाज
अरडी
सवासथयवरधक
मनमरजिया
इथियोपिया
5जी
##yon
##ानास
आइएस
screencast
बलडपरशर
तटर
##साती
##मथ
दरत
निवतति
##सरकारी
इदरियो
रसलमनिया
boldsky
##िकाड
बरतत
##धापी
नौसनिक
thumb
वायसराय
रियायती
छपपन
अनपरिया
पटरिया
आबो
##रीयल
##टनगर
anyporn
##ipur
बराउजिग
परागराफ
कददकस
आईएमए
नइख
असोसिएशन
degree
##defined
जास
रोको
##चरन
नौवा
नारग
244
##गनज
systems
काशमीर
आतमनिरभरता
सथापन
a¤¨a¤
जनलोकपाल
symptoms
pag
##िदश
##अभ
सरवविदित
221
नोवाक
##ghz
कलाइमट
victoria
nig
रवाडा
##rc
मनरो
विदषी
##ससकति
karan
##pura
##pression
poems
surve
सानया
लफजो
##eer
मनिया
##ican
कपरथला
नकारत
फगशई
बराइडल
थाल
उदघाटित
ओवरसीज
##class
छापामार
कामाखया
जॉय
##मपा
##कतय
सिटि
कटम
विलयन
तरापथ
pvt
rc
vl
मिलल
रोजगारलीव
सरीली
##हाइडरशन
##कोलॉजी
लिटरचर
सोहराबददीन
ऑव
काता
नौटियाल
करोटीन
सटरगल
सवाददाताः
gt
hc
हजल
##िधा
दनत
##रमद
अलपना
सारिणी
गिरधारी
छथि
जमर
फडो
विभतियो
मालव
25000
धीरदर
गमपल
सटाइलस
grade
auth
१९९०
##resp
registered
घणटो
अपरिवरतित
fucked
yogi
ringdroid
piece
रोय
फलोरस
##rier
align
लीकज
fm
say
एनि
मौली
परमवीर
डरिप
वीओ
जञानशवर
गमनामी
कौध
सविधानसार
lez
लहरान
navbharat
छडाया
डारलिग
नशीॊ
each
कहाकि
##agon
चमका
पपसी
पाटनी
phoneky
tablet
छलल
भोजना
##िअल
##मानो
भारतनद
लीपा
तलन
मॉस
बरसान
जॉली
गमो
##मानव
सवासतिक
मतानसार
तीमार
उडाना
बताएगी
सौरमडल
शादाब
messenger
written
##चिया
##पह
परकषतर
पराया
##arma
##itis
अतिर
एनड
कटऑफ
एचटीसी
सपीडन
डायरकटरस
उछलकर
बयरसटो
पनरजागरण
खिर
##लग
##िलिक
##लापन
जनज
कामपलकस
एसोचम
डरक
कपयटरो
पीटरसन
ऑथ
खटिया
४१
पहलगाम
उतपल
कामधन
बकठ
चनता
समरसलम
आशिकी
अशकालिक
इशिता
महासमद
बिगडता
शलोका
सभरात
tu
जदाई
वोकस
षषठ
##del
##राया
राजपा
गरथियो
चकन
डिटर
remov
परयवकषको
आपाधापी
syllabus
६४
##कोटी
##ससम
##oder
रिजिज
गहराइयो
ऋणो
नामाक
चिटफड
अभयसत
गलिसरीन
विकाश
बपतिसमा
फराइ
फालो
##यित
मोसल
मखमली
सटारक
रोलस
470
नसरीन
तातया
सारवभौम
पाउच
इनपर
गरदा
नयना
रिषभ
preview
चिढा
adda
profit
सतयारथ
race
सागा
साचा
पलटत
##विशवासी
बाबराम
कादिर
महासममलन
##ासत
डीपीसी
मॉइश
##ogn
राजपताना
topics
लौटाया
defin
celebr
paneer
jaw
गॉस
##ञज
राजततर
तरिद
analysis
pussy
ढाढस
##google
आकारो
ओष
घत
##रानी
##ин
##ादश
सटरी
जगजीवन
जयशरी
sho
scan
नारायणन
रासका
रिफल
परिणत
जिरह
पपल
##णम
विशविदयालय
जडग
वरततमान
सियाराम
नकाबपोश
करिटिकस
christop
pandey
तखतापलट
मलटीनशनल
गवाना
ठहरी
##да
##लाइज
अनतराषटरीय
मोक
कहिन
समझगा
अमोनिया
चीयर
401
बोरिया
गलाबजल
नयोछावर
झोपड
रलगाडियो
उताव
वतात
##oma
शॉवर
##स०
##ाजली
मिलिए
तरहवी
असमा
reach
कौनस
fort
boot
हॉलड
टाइटनियम
परसीडट
खिलखिला
मरदानगी
##e0
कारनर
##लोम
सहमती
trust
नाइटी
रबीना
अलोक
मवाणी
##ानह
वरजीनिया
सचयन
आगम
फलतः
हतो
कोहिनर
याचिकाकरताओ
परकाशनो
रासलीला
परवावलोकन
लजजित
जलालाबाद
dna
near
303
abvp
सलझाया
suit
डॉनलड
ओकारशवर
सरदारो
##वीत
पडालो
##वानो
शिवानद
यपीआई
282
जिबरालटर
room
छपाकर
निःसदह
broad
कोलाहल
javascript
aim
jac
वभ
##ाइस
निहत
##emat
आनदपाल
tea
अकबरपर
परिषदो
पयाला
भिखारियो
narend
इनसलिन
वीनस
सबरहमणयम
एगर
चराई
##kum
##ся
विदवता
मीता
##ague
यथोचित
वॉली
इटारसी
नदकमार
डडलाइन
naam
तरिशक
गोताखोरो
##शरा
लिटट
किछ
दवडा
मलाजिम
सिरक
##पोह
मिशनरियो
नाबालिगो
पहनावा
ठाकोर
##ufact
जजीरो
past
अ0
मलतान
अगलिया
खिलन
नारीवादी
845
हरिदास
solve
highlights
village
uan
गफत
रिय
शडस
भाभा
मधयकरम
कौश
पॉटर
मोडकर
नाइटरट
कारटनिसट
ओबरॉय
गडर
पाखडी
बालमीकि
तोडती
जयोतिबा
440
साढसाती
coon
##षटीय
फसाकर
लॉरस
नजाकत
member
भदन
##bit
सवास
सदहासपद
##कनकट
एफडीए
लिगान
सवरगवास
डॉलफिन
तसी
सहलिया
उततरो
मीत
कौए
##arian
साधारणतया
गरडसलम
बझाई
चिललाया
रोहतगी
लिबरल
##ные
##करत
कलावती
भमिप
नवदय
तजानिया
चढती
497
समपननता
शरोत
अवयवसथित
किवदती
due
##ककड
निरवासन
आसनो
234
एकटिवट
ढालना
##ucle
alex
f1
डाइनिग
##िनियो
जबती
बढई
सनवाए
खलवाया
शाहगज
सततासीन
फॉरचयन
1907
गीगाहरटज
लिथियम
पौरष
dot
##कवि
पटवा
कनब
249
तोडता
इमपोरट
टलीगराफ
activities
सरयकात
ईशनिदा
डपलीकट
आकषप
छाय
##धमान
पढनी
पससी
कालरा
आविर
इमपरस
kaam
##रान
परफार
अलजीरिया
मारबल
लोभी
अटपटा
खाताधारको
माददा
सोनोवाल
kiss
pu
कफी
सकटिग
##परभा
पलसर
पीबी
हरतालिका
16व
गौरकषा
undefined
accord
पीपीएफ
माइनस
जलियावाला
इयान
बारबी
फिलिम
सतरपात
बकमारक
कनि
काररवा
2200
बौना
एकसपरिमट
आईबीएन
sugar
क0
कवाड
४जीबी
##रात
जलपाई
अवयर
सनाती
##टकनिक
पाईप
agric
muh
ईन
##mov
राजकाज
मानिय
##एसई
मखयमनतरी
मीथन
fore
कौव
गिरामी
##ramodi
दीवानो
bbc
ein
vod
गणी
शोरट
सगब
जयकिशन
##osit
resolution
गरनानक
partner
दविती
consultant
इनसाफ
खोसला
उधारी
लदी
थापर
पहलो
camt
झपकी
base
##800
सममन
गोलो
अतररा
डागर
एमआर
disable
मिकसड
##field
तिनका
विरोधाभासी
kind
rj
ऒर
जाचा
सकोग
बजती
सकलपित
पचोली
मगलमय
हमलता
emi
कवश
कोसन
दोना
गरवाल
मौसा
मरदाबाद
पटटिया
सिरप
सिनधी
अनपगढ
works
driver
##शीरषक
तरकमनिसतान
पिथोरागढ
दोन
रदास
विधार
कारटर
##वरता
##िदानद
nex
14वी
उसमानी
जीनियस
सौभागयशाली
मरयादाओ
debit
तरिनिदाद
##िएन
मोडन
माबाप
हरट
बहमज
##rica
डबलयडबलय
लटकन
कारयकशल
saksham
अशवतथामा
सरलीकरण
लगवाया
कपित
बिलट
सपरमन
raha
##पयारी
खोदकर
परिशदधता
cart
आगल
नसिह
रकषको
##bp
निमार
पीआरओ
फरडरिक
चारधाम
सकरात
बलातकारियो
बलोच
560
नलिनी
announc
फरिशत
ezvid
kmsraj51
थियो
##यह
##ners
##दघाटन
पशट
##ingh
##mentation
खानापरति
रॉस
बरहमोस
फरशरस
lyrics
bachchan
बकट
##सब
##शायर
##ौट
##टरक
जोह
##िटट
##वलित
कडप
##भारतीय
prem
trailer
western
msgdo
cowgirl
सतकबीरनगर
narendramodi
eur
ff
गबार
बनदो
##मरग
पकडो
##isf
भययजी
टॉपिकस
##ममम
##जयोति
##िरधारित
##ामट
227
वशान
जीवविजञान
कमपलीट
बकाए
छिललर
साझीदार
सिकरना
एआईएडीएमक
5व
##आज
महरो
हिसट
योगो
चाबहार
वसतनिषठ
##ovo
##कीनदन
रगीला
आकल
##resh
किसिग
एनएसएस
अमबर
सवीकारत
करजदार
सरवशरी
कायमगज
para
बकाक
सामरथ
लठ
##यिकी
मसन
फॉरकस
चरमरा
charge
array
roll
कएम
बहओ
manufact
जागती
assam
जहननम
आयनो
##fied
रधा
##परापति
गजती
allo
एटीबॉडी
नॉनवज
रिवाइजिग
अगीकार
214
जाहिद
रिजयम
१८६
बललभगढ
जीजाजी
खमार
कमिसट
ससगत
विभिन
##दवता
सॉलयशन
##ankari
डलह
रिफाइड
##उततरा
पिम
##िलक
राजपतर
रसमो
ओवरल
अनयाई
अजहरददीन
nature
थकी
बिला
भनी
##जडी
##डिन
##ken
##आत
फरब
दवकीनदन
##एलसी
beat
आगनय
सीबीटी
कबीरदास
उची
छिब
##पजन
जावास
बीड
बदलग
##मोहित
कबरो
नीतिश
बारातियो
a¤°a¥a¤
वलनस
उचक
##yog
करजी
##ताफ
बलाती
##हरता
वाशिग
heav
गिलहरी
कथरीन
##पशस
पकाकर
बलकमलिग
मनववर
camtasia
cos
##फकशन
##wag
##ॉसट
##पीएससी
दिलवाई
बरबरी
मतवय
बॉटल
लाभदायी
नवदीप
माताए
सगीतजञ
शरमजीवी
कलोरीन
rti
गरभाधान
हीनता
परशासित
fixed
वततात
enjoy
हाली
एकका
जीवनदान
परधानमतरियो
जिलद
रायटर
##फटाइम
फटसी
##मिणी
बिछाई
1909
मलशियाई
मोरटार
इपरस
पिकस
हौज
##रिस
##ville
हरात
कनरा
अतरराजयीय
शिवराम
चमपा
नसलीय
नितश
इनफोसिस
##गिरद
डिवलप
htc
rag
अविदया
पसल
लइ
शरीहरि
समझिय
अनसनी
सारगरभित
खोत
पॉलयशन
ऑपरट
कलासज
twink
625
परोटोटाइप
बराहमणी
५३
##lor
बी0
दोसर
भरग
आरसनिक
चीटियो
चमबल
ओवरटक
programs
navratri
गफ
बगाह
निकॉन
##iling
दमिशक
डाकघरो
आजञाकारी
वयोवदध
aisa
साची
अनशर
महामडल
रसिक
जटाय
परभावितो
score
collect
verify
एगलो
हसताकषरित
थलस
पलाई
बवर
##जापानी
आशाराम
सवारिया
निरवाचक
गफतग
##फोट
पतझड
महावरो
लोककथा
एडसस
001
नगमा
itr
ओरिजिनल
ऊनी
##छिया
पदमभ
पोछा
घोटकर
competitive
7वी
ईराक
चवन
सपदन
विधत
बिरज
सरीखा
dw
मवक
##ww
##तवयो
परिवरतक
चदरकात
महाधिवकता
गनहगार
pul
##web
पलानी
बाच
सपरदायो
रकबा
convers
veh
मिलफ
टरडी
वसधव
फटवियर
means
अनाप
पराथमिकताए
लाहौल
कडीशनिग
advertising
कराइसट
शयामलाल
7th
कहक
करीमी
अनतरवासना
##पारजन
volte
जमीदारी
जावासकरिपट
ctet
cities
झकत
##इची
##ми
विभषण
परणा
खोखली
231
विराजित
phase
रघराज
##पाला
इसत
लाइससी
हिससदार
अनपयोगी
दषटो
डिसकवरी
spirit
लिगानपात
पदमभषण
गॉल
गधक
हॉप
५४
##सडा
दरिदो
दशयता
चौकोर
##सिदधि
पजत
शोरगल
असफलताओ
ठककर
समानताए
deepika
सोहना
अनषठानो
नखर
बमल
सवाइप
ससिग
महानिदश
कलयाणपर
##पचमी
इजाफ
admission
gharelu
jh
कएस
209
अलवा
बकसा
कटिबदध
##oly
चमबा
धवनिया
एकसचजो
van
##जदा
वलथ
खगाला
intell
पवाइटस
##पटल
विसटा
बलज
सोफी
##डरॉयड
कपोज
##णीत
##परसती
मछो
पषपदर
रकषातमक
msgdoing
hssc
नौर
##लिख
##bot
बलारस
##rection
डरटी
कॉकटल
उततरायण
पियष
चारितरिक
rashi
मनः
बलजीत
बहसो
डायो
जमनी
##एनएनएकस
##वॉय
##ाइनो
##ayat
राजयपालो
एसटीडी
चराया
adda247
नख
५२
##कासटर
कषारीय
परानतीय
भयय
टकराया
##ralia
डिसटरब
किडनप
chicken
परादरभाव
warn
फलटस
##aser
chandi
चीमा
सिलवा
आलहा
294
सिमडगा
##ईईई
लाओस
automatic
हकस
परतिकति
फरटिला
अनधविशवास
मनमरजी
पयोगयाग
sor
ईक
##km
कोमो
बढानी
पारद
##नसोल
जयोतिषशासतर
सीबीडीटी
learning
अमजॉन
tai
जिव
##शतर
##टरिकस
पराक
शरीहर
##वसान
नयायोचित
सदसया
##पासना
छपती
बिछी
holi
dav
sath
खिली
##चसटस
टरडस
एसवाई
वयाधि
अगसट
लागो
अचला
economic
properties
##ाविजञान
हॉनर
दाभोलकर
चगी
##ор
करशर
इनफॉरमशन
##वरमन
टरकर
मोरगन
contents
निसदह
परिधानो
रहसयोदघाटन
looking
##पॉ
सरर
##एमबी
सिरहान
कमलशवर
पलसिस
नाकाफी
कोकिला
डजर
फवाद
##ोही
सकरा
अधिश
दोहो
माण
##aner
मधसी
वीडियोगराफी
वाजपई
अटडट
शॉपर
pixel
अचीवमट
कनॉट
stay
कतजञ
ताजपोशी
मगही
डरावन
549
540
भडारकर
##evar
हॉटसपॉट
इपटा
करमका
andhra
रजज
हककानी
##angana
१०८
सवपनदोष
तरजनी
ech
tan
सहास
बोलिए
दिवसो
कसीआर
490
बरडमन
विपरित
aarti
तकष
##अब
##लापो
डरपोक
मडता
##एफएफ
रणनीतिया
साईड
अतयषटि
priyanka
intro
तिला
##oh
निठ
रगयलर
वयापी
पोहा
मधययगीन
जमाई
घटाघर
जोडीदार
वदधो
रवीदरनाथ
street
जलपाईगडी
एमा
बयास
##भदी
##vr
##yu
जीवी
खीझ
अनाजो
सफदरजग
निबटा
exercise
peshevar
एजिल
सिरिज
मडीज
डनिम
सॉलिड
राउटर
##बकस
##याद
हमसा
चलमशवर
##ench
लालिमा
around
##पनाह
विमानकषतर
नाइटस
##टिनटल
hyd
keywords
physical
उपकपत
चापलसी
merc
घाल
हॉनग
##cat
##यायन
साबा
आरआर
डाडिया
गराज
पनसिल
अवसरचना
##विनयास
maruti
महातमाओ
सबनध
औजारो
डीएलएफ
themes
mysql
अशाकन
mission
कारस
##मरथन
कपलीट
recharge
पाचक
गीजर
फसलिफट
बापजी
तौलिए
बॉलिग
गोताखोर
छपत
लाचारी
रकमिणी
ताजिक
##दिनो
##परतिशत
##idden
यजीद
five
m1
poc
ठणडा
##हॉल
##mers
##wall
##writ
##वरदधन
परमिला
डिफरट
isi
खालीपन
उलझनो
बहादरगढ
ऊरधवाधर
तसलीमा
ढिढ
वटलिफ
इजरी
रिका
शाज
००
जाइ
पडस
another
frames
छिदरो
opin
a¤®a¤
##चिप
अधिना
##रामऊ
webm
कटरोलर
##inese
डलहौजी
एएफपी
ऐटी
हकल
रकगी
छततीस
शीना
आपरटर
हिमायत
notice
##yoot
करोमियम
सपोटरस
तषणा
नामोन
पतरियो
छोडगी
आइडट
236
विधिपरवक
##जानिक
जीतनदर
छायावाद
भटकती
बरमडा
निलमबित
про
सबगर
अधिपति
बधिर
मातरातमक
आदरशवादी
460
भनकर
पिलाना
paypal
##990
metro
गोमतीनगर
विभीष
nation
##टिकल
बारबा
बीटी
दशपरम
सथाल
सनतो
##icide
एटीगआ
easily
सामगरिया
saving
लोचदार
पकषा
अनपरक
पाथ
आसनसोल
चरखा
टोना
बमतलब
कजाकिसतान
५६
##०स०
जोली
निमना
बाती
##itation
chun
गमगीन
टनिग
पगड
एकाउटट
laksh
टॉल
कररा
मिलवाया
##ोलशन
पीईटी
##नावाला
लालगज
बतवा
##वरतनीय
माइनर
अदनान
इदरी
षोड
##रीना
आपलोगो
जीजी
पहचाकर
वयसन
तलाशत
सिकखो
पजामा
परमपराए
गधो
smartphones
हफीज
##gent
##३०
सममति
सोढी
तबससम
बकन
अगार
बोहत
मडइन
वयवहारो
##रायण
घसड
अविभाजित
##स0
##ायिक
नययर
लालक
शोषक
पचक
वीएचपी
लिपटा
घटाए
##कोटि
attrib
झोपडियो
शिकषाविदो
##ughter
कालरातरि
ररा
शला
रपम
पायो
##वरम
##गोदाम
तनावगरसत
करणवीर
कमटियो
glass
वततचितर
झपकत
परफारमस
jar
pp
rid
ऊमह
चालन
लली
वियना
सिबा
दशपाड
सटस
आईस
आसपकट
परोपरटी
509
सजाई
वदघि
phir
बिदरा
नाशपाती
नयौछावर
बवाना
यदव
हसल
##4c
##fil
##follow
##चिम
##पजी
##erce
17व
वीएनआई
रजोन
beg
plant
nauk
बाकियो
इजीनियरी
##टरोवरसी
odiyo
भसीन
##तारा
वाचा
लटरा
उठाओ
सारवजानिक
333
बिखरत
अमरीश
कआर
धकलन
बिचार
परभावशीलता
कशमकश
##एचडी
बरामहण
विदयाओ
capac
असवीकरण
fastest
everyone
wikipe
zind
लानी
##तटीय
##ोहन
चलनी
##कटड
कोरोन
उतपीडित
अछतो
तबादलो
घमाकर
कातिलाना
हडन
रावी
##लोडर
never
गरीवा
वॉश
##शरय
आकाओ
इडोनशियाई
कलसियम
##لى
निहल
विदवष
करमभमि
हलपर
arab
रिवॉल
बलीच
जामनगर
भादो
kore
tap
फता
##khe
पारि
##टरनशनल
बौख
सकटगरसत
गडबडिया
gun
अडी
एय
खसर
##सकी
##nn
गीदड
344
बाबजद
410
सलामती
astrologer
dry
##खिला
कामसतर
विषाद
बिताय
seconds
सकॉरपियो
भवरी
##राइन
पासा
prices
शासतरारथ
परयतनो
परोहितो
महादवीपो
living
##4मीडिया
किदव
हीलस
बलवाया
सहानी
समझाइश
तललीन
हडताली
खिची
1906
गदगदी
screenshots
a¤µa¤
दलीप
prakash
खाला
##णटी
##ऊट
##करमो
1860
purch
अरनब
ईजी
##कया
##ris
##zo
##मापी
गरचय
पारटरी
##मतत
सफदी
रामबाब
खानपर
चलाएग
##ublic
जञापित
मोटरसाइकल
रिशवतखोरी
जगदीशपर
अनरकषण
employee
सीसा
बलमबरग
टीव
सामिल
apna
कषणमरति
नपालगनज
निभाएगी
##hana
पोसटरस
रशयो
नवरतन
सराट
punjabi
ओजसवी
gd
टाव
करॉप
##िशिया
सलर
कटवान
डराया
चिनतित
विकरमसिघ
उपनिवशवाद
ऑपशस
जीतगा
मलाज
घासी
सगबगाहट
खायी
वराय
##लोन
थीसिस
जनपथ
बरसन
बधनी
दबक
##दायिनी
परदस
थराली
भौतिकता
अडरगराउड
हवालात
जाघिया
rupee
लाइमलाइट
consumer
australia
दयाराम
मिसटरी
##हडस
उपाए
बिब
गोगा
रगनाथ
##तोषण
एमिनो
सपरिगस
सकरीनस
रिसोरट
##anning
archive
अराधना
literary
5th
vas
रशा
सनधि
##onic
नवजागरण
कोलह
कडट
सिकोड
become
##पिओ
##ोपयोगी
कामनाए
फयजन
protect
सहिषण
गरवनर
2gb
dans
ढहन
नमत
##िलन
##िलड
##दारक
आधारो
##chat
##योगीकरण
मायावी
शलफ
रोबिन
mahat
वाउचर
मवककिल
dos
फडन
राहो
दवरा
कतसित
२०१९
असपशयता
निहलानी
3gb
fx
ओसाका
##लकर
##धड
निराली
सतराव
पोस
##लाइनर
bhim
वासतकार
नाइसाफी
flood
इसफलाइटिस
भमिपजन
यमद
सयत
##बाय
दरवित
वरकरो
बलशाली
महामतय
सनतषट
monitor
पबलिशड
intellig
यामा
##गिनी
##अगज
##नाकर
##िशरी
शरीफल
##str
मलजोल
परोधा
राषटरभकति
recovery
मगाया
चचरी
खटीक
##скии
भिवडी
राजपरिवार
तरिजया
bor
घघ
##षकारो
##िवली
सहद
मतस
अमरता
कशासन
321
लमप
झलम
दकियान
रौदर
##dev
रडीमड
fly
दधी
पीरामल
बरनी
सकरड
##umin
कयसक
दफनान
various
hanum
हरयाणा
##ोनिकस
बटट
भावनगर
मसाचसटस
वमनसय
जावगा
परविषटियो
nak
मसतान
रजरस
टाइमर
##मितीय
सपीति
अनाधिकत
तानसन
extension
इमतहान
बिलडरस
समानानतर
दधिया
1901
डोमसटिक
टकरो
हरद
मदगल
फलिया
वीडियोकॉन
##illy
नतथ
शरणागत
चिलच
1893
असवसथता
चौडीकरण
innov
सिमलशन
iontophoresis
xml
उता
टढ
शडो
हको
##हडा
##अपस
##चान
##kata
##লা
सटॉ
आधारहीन
मनाती
mba
कॉनफिडस
मोकामा
खौल
रगाई
##डिनटर
##यावसथा
वाडकर
डॉली
अतरण
दशाओ
उगता
चौबीसो
mutual
technologies
bund
ren
विशन
##डीओ
बलआ
306
chinese
##imal
बाइको
एरना
कगाल
vous
समहाल
2400
पशचिमोततर
हिमपात
मथड
यजञोप
समसामयिकी
हणडपमप
qi
फाव
भगीर
सचान
##online
लिखावट
भावा
डबता
452
koee
partition
कलसचिव
ओबी
मिद
##ied
दररा
नाचना
मनायी
गरामवासियो
एसपीजी
कचलकर
सजायाफता
homeopathic
bc
kon
ray
मदध
वडन
##3c
परदो
दबकर
किरान
autom
methods
hous
yash
चगा
##bor
कोचीन
चनदा
309
kaun
राजशखर
रामनरश
वानसपत
कजाखसतान
राजदरोह
परिघटना
##ोडो
मदला
सपयर
फलकी
चिललाई
बोरवल
मधमकखियो
ठिठक
पितसततातमक
jaye
हमदरद
सविलियन
produc
सराफा
गिटटी
msgdoing111
burn
ढोक
अनपलबध
ससपशन
उमराव
कानत
बटमन
गरीटिग
सकरानति
सभालती
चहिय
fur
मती
मपिग
##ओय
##ाराज
किरो
इनसो
शकतिमान
going
माजिद
हिरोइन
jud
डपल
विया
##विजञानी
उतक
##isi
समानय
भिडगी
रफरिजरटर
गिफ
##cer
रखिक
सवाब
बडिया
टरासमीटर
टिकत
सरवकषणो
##key
दखलदाजी
fucking
पिललई
यमकशवर
ऐलब
डपिग
##मिता
##dha
जीएन
कहि
##रमानी
##ste
नौवहन
दलबीर
माहोल
आठो
दामिनी
ऑपरटिव
अलपावधि
सिखाएग
वयभिचारी
बारबाडोस
##जामा
जबकी
गोरो
sector
बलाइड
रीसाइ
नागदर
हनीफ
समावशन
##बगनी
सहायिका
फिककी
शजात
##लखन
##हाक
आमना
कलाकतिया
हारल
एलक
वीरगति
छठव
muslim
काहिरा
अरिहत
عليه
ऐकटिव
शगल
जरनी
भरवान
उमरा
257
लाइफटाइम
248
शरखलाओ
पशनरो
diam
चिडच
नौकाओ
महिनदरा
नरीमन
episode
पलटलटस
काकोरी
vastu
निति
##ops
जायो
माश
भरपट
ससोधन
इलाइची
uppsc
फारकी
spam
परयावरणविद
निरसतरीकरण
डीलरशिप
##recorder
hub
कीरत
करोनिक
टीडीएस
मललाह
अमो
##बनिक
डबकर
सतयदव
राजशवरी
रगलटरी
sanskar
adit
gy
nice
जगर
फाय
पीसन
##ald
##टनिग
जीतता
सीमापार
##afone
मनकका
मराठवाडा
मारकडय
अडल
ऊऊ
ओलाद
सरणी
सपलिग
विभिननता
##लडस
हदया
शरदधय
जिजीवि
pattern
तानया
##oorji
भणडारण
फिजलखर
rai
##hel
इनदरा
आईएसएस
भाटा
शषनाग
कहलाए
लियोनल
shapoorji
बहिसाब
शखावाटी
gul
jarn
others
इवसट
फसफ
हनमत
दानवो
मनोरथ
item
सपोरटिग
एकसपरशन
गडगडाहट
गरचयटी
वानसपतिक
नसत
##िहा
##िरद
अलबर
पढाती
विशववि
नरजहा
डीईओ
मशर
शहनाज
सोमश
खरीदती
फरीजर
वदारा
कॉनकलव
गगटोक
वटिलटर
saturday
झमत
पथी
इसबार
सममोहित
जीवनत
ओरिएट
रससा
गिरो
हिनदोसतान
लॉजिक
सराही
कजअल
अगनिकाड
असवीकत
पाटील
सटोव
सरफिग
थपथपा
फोटोकॉपी
وس
गवारा
मतत
मलनि
गलड
सोनार
लताड
रिसॉरट
uses
पबलिकशन
दडनीय
kamuk
हरतअगज
operation
##गौरी
##वरडस
कामिल
सरवशवर
परबधकीय
परॉसस
slow
राघवानी
सादरता
6t
mud
##हाथ
सवस
गोदान
रामकिशन
लोपज
मकतक
नागल
पशनरस
sexual
sarv
##वॉश
aus
षड
हठी
##kt
##शनय
सनगा
अगना
stress
फसलाकर
मनोहारी
साराभाई
चदराकर
रकसौल
मजाहिददीन
अपाह
कारयशील
टीपी
सपोर
सजजनो
डोडा
पहनाई
##चिकितसा
मयनिख
सिडिकट
उपकदर
safety
योज
विकल
बहवचन
वसदव
मडिसन
यदधपोत
316
साहबगज
सावला
लपका
तततवजञान
शिलाजीत
रिपलसमट
zero
##परवी
##कतत
बलदी
सरकषाबल
कॉमट
कॉपिया
फॉलोइग
bloggers
retweet
अरधशतकीय
रधावा
बवाय
मधबन
अगआ
एनको
मलाधार
##सकिया
हथौडा
बखतियार
सचचिदानद
पचायतीराज
अकारबनिक
wallet
ऍफ
##िसो
##esome
समझाई
बिलख
लालकिल
341
एनएसए
मोलडिग
गॉधी
उदघोषणा
किदवई
gate
ऐलो
मकी
जनवा
पराबगनी
अरचन
शिवालय
कालापन
##eshwar
वाइज
commerce
लचीली
समपरषण
अगाध
##वब
##डीस
लगडा
सनिय
पतलन
सारगी
खडड
साइको
मठठी
सटमिना
भिकषओ
मरतिकार
कॉनफिगरशन
सपाइसजट
vodafone
chandigarh
निमनाकित
msgdoing111w
##met
##wers
##सरचना
ससकतिक
सारगढ
यादवो
बॉडीगारड
चकनाचर
दवितीयक
tend
बबर
##लॉजिसट
##बोन
##घोट
भारोतत
लगल
मधशियो
कटमब
जिदाद
clerk
##आइसी
नासिका
elig
भगाया
strateg
यामीन
टकनॉलजी
उपकपतान
##करज
तजतर
जोडिया
योगयताओ
विविधताओ
corresp
एसवाईएल
रजोनिव
रिवॉलवर
आमीन
##ळी
अमरया
कथावाचक
पहनता
compress
modern
इरदगिरद
उधम
इनसलशन
किसलिए
upayogakartaon
wikipedia
##िकात
##कीपिग
##साड
दिलासा
फसिलिटी
गायिकी
सकरप
swar
बडकागाव
पोरटरट
##मिनी
##pio
थाप
उतपति
हरबस
बलौदा
दिलर
लाठियो
हवाव
headlines
चिहनो
gra
तनि
##08
अनानास
पाख
निवत
उपयो
फिलिपी
शरीमत
अतरविरोध
दलजीत
बढाएगी
मगाई
471
467
##ternal
##सपटिक
homeopathy
आसा
बटक
##िसियो
##सतभ
उपवन
सपतरी
आदोलित
अमरनदर
नयजर
273
नालिया
अफगानी
चितरागदा
christophe
blo
दहर
##5b
सजात
निषफल
सकषमजीव
मगाए
academ
goa
मनचलो
आटोमटिक
आरथराइटिस
portugues
520
झाव
##wat
परिकषा
विशद
फिरना
सवामियो
##िपस
असमबली
##uth
arun
यनिफारम
32gb
##यागना
##दासत
few
portable
कपसिटिव
else
##मनोहर
btc
नीन
वफा
##इडिया
##ॉगस
रहडी
नवगठित
रटड
टॉकीज
गिलड
468
tarah
डिलवरी
##onding
ललाट
तकाजा
vajpayee
6gb
उट
टॉय
तनद
हउ
जोल
पराडा
arm
366
kejriwal
परियाक
caption
परोमोशन
##इम
करकी
कलई
बलडो
अरसा
रगभद
महाबल
लाइलाज
##ector
वाइबर
setup
ढोलक
परमाननद
##ership
ओनर
उपशीरषक
राजयसतरीय
##जञानिक
252
गारजियन
कलीयर
chandra
रिरपोट
giz
गऊ
##ियाला
गरजनो
बगहा
##abol
डराप
महदरगढ
अरधति
उबारन
##जि
##uation
अनवाशिक
सीमान
बताइस
जायद
thak
एलिज
292
आफटर
fraud
अनविभागीय
रिड
बारदी
पीएससी
##ोटिन
ओरिजनल
तिराहा
पथो
निरीकषको
flu
पॉपलरिटी
शिषटमडल
ऐकर
सकरम
##door
##ोनन
राजधरम
नाऊ
अपनाता
चढाय
बरोकली
तीरथसथल
किरायदार
१९५०
झोलाछाप
##गटर
##cip
##चची
राऊ
##ामन
सपज
बॉट
##ayur
खरसावा
उलटिया
खाबड
दीपश
गरमहर
बालोद
मटकी
mini
गलतफहम
ऑसटिन
association
जिजीविषा
achar
थडर
##sd
मोबिलिटी
थानापरभारी
आनददायक
विशवासियो
बागो
गिलगित
घसान
शिशपाल
coach
सयोगवश
जिमनासट
nucle
##टाइ
##कणड
##pap
##ळा
##िकार
मदनी
##ियनस
##otic
महानभावो
बागियो
वादयय
धकको
नवाबगज
चिलचिलाती
इथनॉल
यवन
##ढाल
##ऑल
20000
##विधान
कामचछा
चलल
दिलायी
जलदाय
##rel
कटसट
दवद
बशर
चिललाकर
launched
लहार
लहरी
##चियो
करतार
जीतती
arth
[...]
